unsigned char _____model_lite_CNN_model_tflite[] = {
  0x20, 0x00, 0x00, 0x00, 0x54, 0x46, 0x4c, 0x33, 0x00, 0x00, 0x00, 0x00,
  0x14, 0x00, 0x20, 0x00, 0x1c, 0x00, 0x18, 0x00, 0x14, 0x00, 0x10, 0x00,
  0x0c, 0x00, 0x00, 0x00, 0x08, 0x00, 0x04, 0x00, 0x14, 0x00, 0x00, 0x00,
  0x1c, 0x00, 0x00, 0x00, 0x8c, 0x00, 0x00, 0x00, 0xe4, 0x00, 0x00, 0x00,
  0x9c, 0x17, 0x00, 0x00, 0xac, 0x17, 0x00, 0x00, 0x40, 0x2b, 0x00, 0x00,
  0x03, 0x00, 0x00, 0x00, 0x01, 0x00, 0x00, 0x00, 0x04, 0x00, 0x00, 0x00,
  0x92, 0xe7, 0xff, 0xff, 0x0c, 0x00, 0x00, 0x00, 0x1c, 0x00, 0x00, 0x00,
  0x3c, 0x00, 0x00, 0x00, 0x0f, 0x00, 0x00, 0x00, 0x73, 0x65, 0x72, 0x76,
  0x69, 0x6e, 0x67, 0x5f, 0x64, 0x65, 0x66, 0x61, 0x75, 0x6c, 0x74, 0x00,
  0x01, 0x00, 0x00, 0x00, 0x04, 0x00, 0x00, 0x00, 0x90, 0xff, 0xff, 0xff,
  0x13, 0x00, 0x00, 0x00, 0x04, 0x00, 0x00, 0x00, 0x08, 0x00, 0x00, 0x00,
  0x64, 0x65, 0x6e, 0x73, 0x65, 0x5f, 0x31, 0x33, 0x00, 0x00, 0x00, 0x00,
  0x01, 0x00, 0x00, 0x00, 0x04, 0x00, 0x00, 0x00, 0x36, 0xe8, 0xff, 0xff,
  0x04, 0x00, 0x00, 0x00, 0x0f, 0x00, 0x00, 0x00, 0x63, 0x6f, 0x6e, 0x76,
  0x32, 0x64, 0x5f, 0x32, 0x37, 0x5f, 0x69, 0x6e, 0x70, 0x75, 0x74, 0x00,
  0x02, 0x00, 0x00, 0x00, 0x34, 0x00, 0x00, 0x00, 0x04, 0x00, 0x00, 0x00,
  0xdc, 0xff, 0xff, 0xff, 0x16, 0x00, 0x00, 0x00, 0x04, 0x00, 0x00, 0x00,
  0x13, 0x00, 0x00, 0x00, 0x43, 0x4f, 0x4e, 0x56, 0x45, 0x52, 0x53, 0x49,
  0x4f, 0x4e, 0x5f, 0x4d, 0x45, 0x54, 0x41, 0x44, 0x41, 0x54, 0x41, 0x00,
  0x08, 0x00, 0x0c, 0x00, 0x08, 0x00, 0x04, 0x00, 0x08, 0x00, 0x00, 0x00,
  0x15, 0x00, 0x00, 0x00, 0x04, 0x00, 0x00, 0x00, 0x13, 0x00, 0x00, 0x00,
  0x6d, 0x69, 0x6e, 0x5f, 0x72, 0x75, 0x6e, 0x74, 0x69, 0x6d, 0x65, 0x5f,
  0x76, 0x65, 0x72, 0x73, 0x69, 0x6f, 0x6e, 0x00, 0x17, 0x00, 0x00, 0x00,
  0xb4, 0x16, 0x00, 0x00, 0xac, 0x16, 0x00, 0x00, 0x94, 0x16, 0x00, 0x00,
  0x7c, 0x16, 0x00, 0x00, 0x4c, 0x16, 0x00, 0x00, 0xfc, 0x15, 0x00, 0x00,
  0xec, 0x06, 0x00, 0x00, 0x9c, 0x06, 0x00, 0x00, 0x8c, 0x01, 0x00, 0x00,
  0x3c, 0x01, 0x00, 0x00, 0xdc, 0x00, 0x00, 0x00, 0xd4, 0x00, 0x00, 0x00,
  0xcc, 0x00, 0x00, 0x00, 0xc4, 0x00, 0x00, 0x00, 0xbc, 0x00, 0x00, 0x00,
  0xb4, 0x00, 0x00, 0x00, 0xac, 0x00, 0x00, 0x00, 0xa4, 0x00, 0x00, 0x00,
  0x9c, 0x00, 0x00, 0x00, 0x94, 0x00, 0x00, 0x00, 0x8c, 0x00, 0x00, 0x00,
  0x6c, 0x00, 0x00, 0x00, 0x04, 0x00, 0x00, 0x00, 0x0e, 0xe9, 0xff, 0xff,
  0x04, 0x00, 0x00, 0x00, 0x58, 0x00, 0x00, 0x00, 0x0c, 0x00, 0x00, 0x00,
  0x08, 0x00, 0x0e, 0x00, 0x08, 0x00, 0x04, 0x00, 0x08, 0x00, 0x00, 0x00,
  0x10, 0x00, 0x00, 0x00, 0x28, 0x00, 0x00, 0x00, 0x00, 0x00, 0x06, 0x00,
  0x08, 0x00, 0x04, 0x00, 0x06, 0x00, 0x00, 0x00, 0x04, 0x00, 0x00, 0x00,
  0x01, 0x00, 0x00, 0x00, 0xeb, 0x03, 0x00, 0x00, 0x00, 0x00, 0x0a, 0x00,
  0x10, 0x00, 0x0c, 0x00, 0x08, 0x00, 0x04, 0x00, 0x0a, 0x00, 0x00, 0x00,
  0x01, 0x00, 0x00, 0x00, 0x02, 0x00, 0x00, 0x00, 0x04, 0x00, 0x00, 0x00,
  0x06, 0x00, 0x00, 0x00, 0x32, 0x2e, 0x31, 0x33, 0x2e, 0x30, 0x00, 0x00,
  0x72, 0xe9, 0xff, 0xff, 0x04, 0x00, 0x00, 0x00, 0x10, 0x00, 0x00, 0x00,
  0x31, 0x2e, 0x31, 0x34, 0x2e, 0x30, 0x00, 0x00, 0x00, 0x00, 0x00, 0x00,
  0x00, 0x00, 0x00, 0x00, 0x64, 0xd7, 0xff, 0xff, 0x68, 0xd7, 0xff, 0xff,
  0x6c, 0xd7, 0xff, 0xff, 0x70, 0xd7, 0xff, 0xff, 0x74, 0xd7, 0xff, 0xff,
  0x78, 0xd7, 0xff, 0xff, 0x7c, 0xd7, 0xff, 0xff, 0x80, 0xd7, 0xff, 0xff,
  0x84, 0xd7, 0xff, 0xff, 0x88, 0xd7, 0xff, 0xff, 0xb6, 0xe9, 0xff, 0xff,
  0x04, 0x00, 0x00, 0x00, 0x50, 0x00, 0x00, 0x00, 0x81, 0xe5, 0x5b, 0x45,
  0xec, 0x7f, 0x82, 0x17, 0x32, 0xc0, 0x6d, 0xf4, 0x5c, 0x5c, 0x7f, 0x6f,
  0x7f, 0x24, 0xd8, 0x40, 0xf0, 0x7f, 0x20, 0x71, 0xd9, 0x0f, 0x81, 0x34,
  0x75, 0xfb, 0x85, 0x7f, 0x45, 0x93, 0x06, 0x9c, 0x81, 0xbb, 0xb4, 0xe5,
  0x81, 0x96, 0xac, 0x9a, 0xa6, 0xd8, 0x7f, 0x94, 0x99, 0x94, 0x05, 0xb3,
  0xc0, 0x81, 0x1f, 0xcd, 0x7f, 0xe8, 0x98, 0x8b, 0xf9, 0xef, 0x81, 0xd2,
  0xbb, 0x67, 0x21, 0x63, 0x7b, 0x7f, 0xcf, 0x81, 0x0a, 0xb2, 0xd3, 0x3b,
  0x1b, 0x50, 0xe1, 0x81, 0x12, 0xea, 0xff, 0xff, 0x04, 0x00, 0x00, 0x00,
  0x40, 0x00, 0x00, 0x00, 0x0d, 0x00, 0x00, 0x00, 0x0b, 0x00, 0x00, 0x00,
  0x16, 0x00, 0x00, 0x00, 0xf3, 0xff, 0xff, 0xff, 0x1e, 0x00, 0x00, 0x00,
  0xdb, 0xff, 0xff, 0xff, 0xeb, 0xff, 0xff, 0xff, 0xfb, 0xff, 0xff, 0xff,
  0xf2, 0xff, 0xff, 0xff, 0xef, 0xff, 0xff, 0xff, 0x0b, 0x00, 0x00, 0x00,
  0xef, 0xff, 0xff, 0xff, 0x09, 0x00, 0x00, 0x00, 0xfe, 0xff, 0xff, 0xff,
  0x03, 0x00, 0x00, 0x00, 0x0e, 0x00, 0x00, 0x00, 0x5e, 0xea, 0xff, 0xff,
  0x04, 0x00, 0x00, 0x00, 0x00, 0x05, 0x00, 0x00, 0xdc, 0x49, 0x0f, 0xe9,
  0x4d, 0x10, 0xbd, 0x29, 0x9f, 0x0e, 0xda, 0x33, 0x3b, 0x4a, 0x29, 0xe6,
  0xd9, 0xaa, 0x0c, 0x5a, 0x1a, 0x10, 0xcf, 0x4f, 0x07, 0x2d, 0x02, 0xff,
  0xfa, 0xec, 0x3a, 0x0f, 0x81, 0xec, 0xe1, 0x11, 0xba, 0x40, 0x39, 0xcc,
  0xf6, 0xd9, 0xe4, 0xe4, 0xaf, 0xff, 0x35, 0xe4, 0xa2, 0xe1, 0xf5, 0x56,
  0x03, 0xc6, 0x9e, 0xe9, 0x2e, 0xb8, 0xc7, 0xfb, 0xfd, 0x39, 0x9c, 0xca,
  0xcf, 0x05, 0xe5, 0x3d, 0x2b, 0xa8, 0xcf, 0xee, 0xc6, 0xb3, 0x14, 0xdb,
  0xe9, 0x61, 0x18, 0xd1, 0x05, 0x28, 0xe8, 0xd5, 0x9f, 0xd6, 0x9c, 0x11,
  0xdd, 0x1f, 0x40, 0x9e, 0xf3, 0x17, 0xbb, 0x81, 0xd0, 0x03, 0xfa, 0x15,
  0xd1, 0xd2, 0xb3, 0xb6, 0xf2, 0xf3, 0xd7, 0xff, 0xce, 0xc9, 0xa9, 0xfd,
  0x55, 0x1b, 0xc7, 0x38, 0x4f, 0x22, 0x1f, 0x30, 0x35, 0x07, 0xe9, 0xda,
  0xed, 0xe4, 0x0d, 0x34, 0xe4, 0x42, 0xee, 0xc2, 0xb4, 0x75, 0xa7, 0x6a,
  0x74, 0xec, 0x52, 0x40, 0x0f, 0xc4, 0x5e, 0xea, 0x15, 0xf7, 0xb0, 0x1e,
  0xdd, 0xf5, 0x54, 0x40, 0xf5, 0x05, 0x23, 0xc7, 0xde, 0xdd, 0xed, 0xca,
  0x0b, 0x58, 0x0e, 0x54, 0x2e, 0xa1, 0x2d, 0xc3, 0xdb, 0x12, 0x00, 0x6b,
  0xe4, 0x2c, 0xe2, 0x6f, 0xcd, 0x8e, 0x1e, 0xcf, 0x2b, 0xaf, 0x14, 0x35,
  0xf0, 0x0c, 0x41, 0xe4, 0x5e, 0xd3, 0xbe, 0xfb, 0xbf, 0xa5, 0x71, 0xe6,
  0x0d, 0xd7, 0xef, 0xbc, 0xd6, 0x97, 0xd6, 0x1e, 0x0a, 0x3e, 0x1f, 0xb2,
  0x81, 0x97, 0xca, 0x92, 0x0d, 0x30, 0xbc, 0x2f, 0x5c, 0x07, 0x13, 0x1c,
  0xce, 0xf6, 0xe9, 0x41, 0xd5, 0xc7, 0xb5, 0xcf, 0xe7, 0x02, 0xcd, 0xcd,
  0xec, 0x47, 0xc5, 0xb0, 0x67, 0xca, 0x33, 0xd4, 0x82, 0x03, 0x1b, 0x1d,
  0xca, 0x3d, 0xf3, 0xf2, 0x6f, 0xff, 0xe2, 0x50, 0x18, 0xd8, 0xd7, 0xca,
  0x1e, 0x32, 0xc7, 0xdf, 0xd1, 0x19, 0x08, 0x65, 0xaf, 0xfe, 0x14, 0x1d,
  0xaa, 0xf8, 0x8d, 0x37, 0x55, 0x81, 0x35, 0x21, 0x1f, 0x15, 0x3a, 0x49,
  0x54, 0x8b, 0xa5, 0xc9, 0x85, 0x6c, 0xb3, 0xf3, 0x1a, 0xe4, 0x73, 0xf8,
  0x49, 0x30, 0x40, 0x62, 0x0c, 0x69, 0xfb, 0x5f, 0x78, 0xd0, 0xd2, 0x0c,
  0x5c, 0x0d, 0xbb, 0xd6, 0xbb, 0x4e, 0xe7, 0xd9, 0x0c, 0x5b, 0xe4, 0xdb,
  0xdf, 0x0e, 0x92, 0xae, 0x2c, 0xee, 0xbd, 0xc6, 0xa5, 0xd3, 0xdd, 0x6e,
  0x0b, 0x1d, 0x6e, 0x71, 0x11, 0x33, 0x37, 0xd7, 0x00, 0x03, 0xea, 0xd0,
  0x17, 0xc9, 0xc4, 0xf1, 0xce, 0x5a, 0x43, 0x5b, 0xbe, 0x0e, 0xef, 0x67,
  0x4d, 0x13, 0x37, 0x31, 0xa3, 0x21, 0x49, 0xb2, 0x10, 0xd7, 0x10, 0x35,
  0xc3, 0x99, 0x02, 0x36, 0xe9, 0xba, 0xf2, 0xb4, 0xb9, 0x1b, 0x8d, 0x3e,
  0x58, 0xcb, 0xa9, 0xaa, 0xeb, 0xf1, 0x30, 0x36, 0xa0, 0x8e, 0x02, 0x22,
  0x2a, 0xa8, 0xe8, 0x53, 0xf6, 0x12, 0x36, 0x47, 0xed, 0x81, 0x4a, 0xf9,
  0x07, 0x81, 0xde, 0x01, 0xe7, 0x0d, 0xdb, 0x2b, 0x28, 0x16, 0x2e, 0xd9,
  0xe5, 0xce, 0x23, 0xbb, 0xde, 0x17, 0x12, 0xe7, 0xe4, 0xd8, 0xba, 0x0e,
  0x1a, 0x0d, 0xcb, 0xd5, 0xd3, 0x2b, 0xf7, 0xdb, 0xfe, 0xf0, 0xfa, 0x0d,
  0x07, 0x12, 0xd4, 0x0c, 0xe5, 0x0a, 0x17, 0x0d, 0xd4, 0xe5, 0xcb, 0xfd,
  0xfc, 0xd6, 0xe7, 0xf7, 0xf0, 0x0b, 0xcf, 0x20, 0x28, 0x15, 0xe7, 0xe9,
  0xe5, 0xd2, 0x2a, 0xf5, 0xe5, 0xb9, 0xfd, 0xd7, 0xe3, 0xfd, 0x0e, 0xdd,
  0xfa, 0xfd, 0x0b, 0x1d, 0xdd, 0xed, 0xee, 0xb8, 0xaa, 0xde, 0xca, 0x29,
  0x0d, 0xa8, 0xb9, 0xb0, 0x81, 0xe8, 0x84, 0xe8, 0xe3, 0xf1, 0xf1, 0x21,
  0xeb, 0xe2, 0xd7, 0x9f, 0xe8, 0x10, 0x17, 0x23, 0x39, 0xe4, 0xf7, 0xce,
  0x2a, 0x02, 0x4b, 0x9c, 0xf3, 0x1a, 0x0a, 0xd1, 0x05, 0xb8, 0xf2, 0xff,
  0x22, 0xe8, 0xe6, 0xed, 0xf0, 0xd2, 0x0e, 0xef, 0x28, 0xfd, 0xc6, 0xc7,
  0xa2, 0xeb, 0xdc, 0xd5, 0xf2, 0x03, 0x21, 0x1f, 0x47, 0xe2, 0x22, 0xa6,
  0x07, 0x3c, 0xf7, 0xf8, 0xa0, 0x2c, 0xe5, 0x50, 0x11, 0x06, 0x2f, 0xf5,
  0x1c, 0x06, 0x0c, 0x0a, 0xd6, 0xed, 0xa6, 0x56, 0x88, 0xab, 0xa7, 0x59,
  0x08, 0xfb, 0x2f, 0x40, 0xe3, 0xa4, 0xf5, 0x1f, 0xd7, 0x2a, 0xa6, 0xbc,
  0x2c, 0xc8, 0xac, 0xae, 0xb3, 0xc4, 0xa6, 0xaa, 0x10, 0xb1, 0x81, 0x06,
  0xc3, 0xfd, 0x51, 0xf5, 0x3b, 0x36, 0xd0, 0x88, 0x34, 0x22, 0x42, 0x34,
  0xbc, 0x06, 0xf7, 0x31, 0xdf, 0x96, 0x06, 0x45, 0x08, 0x30, 0x39, 0xdf,
  0xbc, 0x0d, 0xad, 0xcc, 0xbb, 0x39, 0x43, 0x08, 0x48, 0xe2, 0x2b, 0xfc,
  0x4c, 0x5a, 0x22, 0xd2, 0xe1, 0x05, 0x9d, 0x21, 0x2b, 0x6d, 0x05, 0x03,
  0x8f, 0x9e, 0x83, 0xbc, 0x15, 0xea, 0x81, 0x03, 0x72, 0xed, 0x00, 0x42,
  0x59, 0x90, 0x40, 0xd3, 0x62, 0xc6, 0x74, 0xc8, 0x31, 0x01, 0x8e, 0x3c,
  0x1d, 0x26, 0x2f, 0xb8, 0xea, 0xfb, 0x0b, 0x23, 0xdc, 0xa4, 0xa7, 0x0d,
  0xe7, 0x01, 0x41, 0xd0, 0x17, 0xde, 0xfc, 0xc7, 0xe7, 0x1a, 0x67, 0x35,
  0x2e, 0x2e, 0xe7, 0x67, 0xbd, 0x0c, 0xde, 0x12, 0x3e, 0x23, 0x34, 0x3d,
  0xb5, 0x4e, 0xa4, 0xbb, 0x1f, 0xdd, 0x0a, 0xc8, 0xad, 0x53, 0xd7, 0xa4,
  0xee, 0x51, 0x18, 0xea, 0x3e, 0x07, 0x24, 0xc5, 0xca, 0x4f, 0x9c, 0x3d,
  0x0e, 0xb8, 0xf5, 0x07, 0xad, 0x2f, 0xd8, 0x30, 0x58, 0xa8, 0xcf, 0x31,
  0xbd, 0xe5, 0xf2, 0x0d, 0x3d, 0xb4, 0xd7, 0xb4, 0x9b, 0xea, 0xf6, 0xce,
  0xb4, 0xb9, 0x9e, 0xfb, 0x33, 0x52, 0xcf, 0xbc, 0x0d, 0xae, 0x45, 0x2b,
  0xd0, 0x21, 0xb2, 0x4d, 0xc9, 0xb6, 0x52, 0xc4, 0x01, 0x55, 0x03, 0x98,
  0xa9, 0xf3, 0x3f, 0x3c, 0x44, 0xda, 0x2c, 0x53, 0x10, 0x10, 0x39, 0xae,
  0x38, 0x27, 0x4c, 0x2a, 0xd7, 0xcf, 0xae, 0xf0, 0xc7, 0x13, 0x81, 0x0c,
  0xa1, 0x0f, 0x92, 0x24, 0xf9, 0x1b, 0xd8, 0xc0, 0x02, 0x46, 0x03, 0x3d,
  0xe0, 0xa5, 0xd7, 0xab, 0xe2, 0xa7, 0x55, 0x81, 0xaa, 0xea, 0xc0, 0x34,
  0xb0, 0xc6, 0xe9, 0xd7, 0xde, 0x20, 0x00, 0x23, 0xa4, 0xd5, 0x3b, 0xf1,
  0xfd, 0xe4, 0x5b, 0xbc, 0x1a, 0xc7, 0x36, 0xcb, 0xfc, 0xb5, 0x11, 0x88,
  0x03, 0x17, 0x2f, 0x16, 0x32, 0x2a, 0x1d, 0xd0, 0x11, 0xb0, 0xf2, 0xed,
  0xf0, 0xe7, 0xdb, 0xfd, 0xad, 0x4c, 0x30, 0xc1, 0xc6, 0x53, 0xec, 0x30,
  0x3f, 0x47, 0x10, 0xf3, 0xb7, 0x5f, 0x45, 0xec, 0x63, 0x28, 0x3d, 0x7e,
  0x02, 0x27, 0xc0, 0x03, 0xe6, 0x12, 0xe4, 0x4b, 0x41, 0xd9, 0x1e, 0xa6,
  0x11, 0x29, 0xb6, 0x4e, 0x00, 0x18, 0x09, 0x28, 0xdb, 0xb9, 0x09, 0x1c,
  0xf6, 0xa6, 0x0c, 0x99, 0xb1, 0xb7, 0x19, 0x81, 0xf5, 0xff, 0x16, 0x28,
  0xb5, 0x32, 0xee, 0x4a, 0x4e, 0xff, 0x44, 0x31, 0xfa, 0xc7, 0x09, 0x41,
  0x32, 0x2c, 0xa6, 0xe0, 0x06, 0x39, 0x33, 0xd7, 0xba, 0xcf, 0x37, 0x37,
  0x26, 0xff, 0xcd, 0x48, 0xff, 0xeb, 0x1f, 0x0e, 0x18, 0xe1, 0x12, 0xfa,
  0xab, 0xc5, 0x09, 0x38, 0xc0, 0xd7, 0xe0, 0x3f, 0xd0, 0x27, 0x37, 0xd2,
  0xd4, 0xd7, 0x08, 0xcf, 0xfc, 0xa9, 0x9a, 0x6c, 0x16, 0xc1, 0xdd, 0x46,
  0xb1, 0xd2, 0x86, 0x17, 0x15, 0x2d, 0xa0, 0xdb, 0x00, 0x58, 0x2c, 0xae,
  0x66, 0x4f, 0xb1, 0xec, 0x57, 0x61, 0x1d, 0xfb, 0x83, 0x13, 0xb4, 0xe2,
  0xd4, 0x16, 0x5f, 0x54, 0x4c, 0x91, 0x78, 0xa1, 0x33, 0x41, 0xf4, 0x33,
  0x81, 0xc3, 0x4e, 0x91, 0x06, 0xe3, 0xdd, 0xa7, 0x6c, 0xe5, 0xc8, 0x06,
  0xad, 0xe0, 0x35, 0x30, 0x8d, 0x5e, 0x61, 0x6e, 0x4e, 0x64, 0x96, 0x4a,
  0x14, 0x5d, 0x17, 0xa1, 0x16, 0x0f, 0x12, 0x07, 0xc7, 0x15, 0xfc, 0xc6,
  0xd3, 0xf5, 0xff, 0xaf, 0x81, 0xda, 0xa5, 0xf7, 0xee, 0x47, 0xe6, 0xde,
  0x41, 0x12, 0xf1, 0x35, 0xf8, 0x07, 0x45, 0x00, 0x31, 0xfb, 0xe6, 0x4f,
  0xf2, 0x37, 0x15, 0xba, 0xab, 0x2e, 0xef, 0xe6, 0x01, 0x36, 0x0b, 0xe7,
  0x02, 0xac, 0xfa, 0xf4, 0x2d, 0xec, 0x18, 0x1c, 0x39, 0xfe, 0x17, 0xbe,
  0xde, 0xd9, 0xeb, 0x8d, 0x1e, 0x2f, 0x0a, 0xe3, 0xff, 0xe3, 0x1a, 0x43,
  0x41, 0x15, 0xd7, 0xf4, 0xb6, 0xfb, 0x1d, 0xb6, 0xc1, 0xe7, 0x9c, 0x4a,
  0xbf, 0x78, 0xf3, 0x16, 0xe8, 0x10, 0x4c, 0xaf, 0x35, 0x0d, 0x62, 0x54,
  0x6c, 0xb2, 0xeb, 0x48, 0xdb, 0x23, 0xea, 0x1b, 0xf3, 0xdc, 0x7f, 0xa3,
  0x1c, 0xbd, 0xb1, 0x0f, 0xf1, 0xf5, 0xde, 0x1a, 0xed, 0x22, 0xcd, 0x3b,
  0x4d, 0x52, 0x1a, 0xf2, 0xc7, 0x13, 0x3e, 0x16, 0xe3, 0x10, 0xc6, 0x5b,
  0x52, 0xa4, 0xeb, 0x07, 0x49, 0xd8, 0x40, 0xa8, 0x8d, 0xc3, 0xd6, 0x4f,
  0xcf, 0x24, 0xe7, 0x04, 0xac, 0xed, 0xd3, 0x1f, 0xf0, 0x02, 0xb2, 0x93,
  0x1a, 0xd6, 0xd1, 0xea, 0x25, 0x9c, 0x8a, 0x19, 0x33, 0x1d, 0x49, 0x0a,
  0xd1, 0x0f, 0x81, 0x89, 0x99, 0x38, 0x92, 0x99, 0xa2, 0xf7, 0x1e, 0xf7,
  0x1a, 0x13, 0x86, 0xd2, 0xc5, 0x91, 0x44, 0x49, 0x10, 0xb5, 0x07, 0x1b,
  0x11, 0x1c, 0xbf, 0x59, 0xd0, 0x06, 0x21, 0x3b, 0x11, 0x53, 0x29, 0x9e,
  0x46, 0x31, 0x42, 0xfe, 0x2c, 0x6a, 0xce, 0xa8, 0xec, 0xaf, 0xef, 0x64,
  0xba, 0x3a, 0xc4, 0x19, 0x54, 0x15, 0xba, 0x27, 0xff, 0xb0, 0xdc, 0x41,
  0xb6, 0xa9, 0xe0, 0x36, 0x28, 0xbf, 0xdc, 0x46, 0x36, 0xb9, 0xc6, 0x64,
  0xf8, 0xe1, 0xf3, 0x37, 0x6a, 0xef, 0xff, 0xff, 0x04, 0x00, 0x00, 0x00,
  0x40, 0x00, 0x00, 0x00, 0xe6, 0xff, 0xff, 0xff, 0xe8, 0xff, 0xff, 0xff,
  0xf8, 0xff, 0xff, 0xff, 0xee, 0xff, 0xff, 0xff, 0xf1, 0xff, 0xff, 0xff,
  0xec, 0xff, 0xff, 0xff, 0x02, 0x00, 0x00, 0x00, 0x0e, 0x00, 0x00, 0x00,
  0xff, 0xff, 0xff, 0xff, 0xfe, 0xff, 0xff, 0xff, 0xe9, 0xff, 0xff, 0xff,
  0xeb, 0xff, 0xff, 0xff, 0xee, 0xff, 0xff, 0xff, 0x0d, 0x00, 0x00, 0x00,
  0xfe, 0xff, 0xff, 0xff, 0xfa, 0xff, 0xff, 0xff, 0xb6, 0xef, 0xff, 0xff,
  0x04, 0x00, 0x00, 0x00, 0x00, 0x0f, 0x00, 0x00, 0xb2, 0xcc, 0xa9, 0x39,
  0xc2, 0x3a, 0x5a, 0xa0, 0x3a, 0x3d, 0xd6, 0x05, 0xe2, 0x20, 0x10, 0xa8,
  0xc5, 0xf7, 0x25, 0x34, 0x61, 0xc2, 0xb3, 0xb8, 0x4f, 0x24, 0x9d, 0x13,
  0xf0, 0x37, 0xe2, 0x02, 0x15, 0xfe, 0xf6, 0x16, 0x05, 0x16, 0x7a, 0x03,
  0x57, 0x3a, 0xd1, 0x04, 0xb1, 0x2e, 0x05, 0x00, 0xc7, 0x3a, 0x1f, 0xfe,
  0xa5, 0x18, 0x2e, 0xe2, 0xf8, 0xf4, 0xe0, 0x51, 0xec, 0x30, 0x09, 0xb7,
  0xc0, 0xce, 0x22, 0x16, 0xff, 0x0c, 0xbf, 0x06, 0x02, 0xf9, 0xe6, 0x4a,
  0x4e, 0x96, 0xb0, 0xe4, 0x9e, 0x51, 0x55, 0x32, 0xf5, 0xd8, 0x4f, 0x8f,
  0xcb, 0xc4, 0x36, 0xc1, 0xaf, 0x27, 0x0d, 0x21, 0xda, 0x4c, 0xb9, 0xb0,
  0x1c, 0xd6, 0x56, 0xf8, 0xd4, 0x23, 0xcd, 0xa9, 0x2f, 0x06, 0x42, 0xfc,
  0xec, 0x2b, 0x56, 0xe1, 0xfe, 0x30, 0xb9, 0x1a, 0x08, 0x64, 0xf0, 0x20,
  0x07, 0xc3, 0x53, 0xe2, 0xd4, 0x26, 0x3a, 0x44, 0xbd, 0x05, 0x08, 0xd3,
  0x28, 0x1f, 0x35, 0xaf, 0x13, 0x36, 0x10, 0x04, 0xea, 0xc6, 0x97, 0xee,
  0x4c, 0xf1, 0xc5, 0xc3, 0xf0, 0xee, 0x0c, 0x53, 0xd0, 0x66, 0xbe, 0x11,
  0x1d, 0x16, 0xda, 0xbf, 0x5f, 0x00, 0xbd, 0xc9, 0x0f, 0x5a, 0xfa, 0xea,
  0x1c, 0x06, 0x63, 0xbb, 0x11, 0x1b, 0x2c, 0xdb, 0x00, 0x3c, 0x37, 0x8d,
  0x3f, 0xd9, 0x2a, 0x0b, 0xb3, 0xd0, 0x11, 0xd7, 0x99, 0xd4, 0x40, 0xaa,
  0xf0, 0x17, 0xcd, 0xb6, 0x0d, 0x24, 0x03, 0xef, 0x47, 0x2d, 0x41, 0xfd,
  0xd6, 0x25, 0x0d, 0xc9, 0xeb, 0xe5, 0xbb, 0x0c, 0x35, 0x3f, 0x3e, 0xbf,
  0x1a, 0x50, 0xf5, 0xab, 0x9e, 0xcf, 0x43, 0x16, 0x5e, 0x3a, 0x7f, 0x04,
  0x42, 0x29, 0x1b, 0xef, 0x2a, 0x35, 0xe4, 0xf7, 0x06, 0xda, 0x0a, 0xcc,
  0xb8, 0xec, 0xb2, 0xc4, 0x31, 0xef, 0x04, 0xb2, 0x1e, 0x0d, 0x19, 0xda,
  0xcd, 0xcf, 0x99, 0xe0, 0x8c, 0x06, 0xdf, 0x22, 0xe8, 0xee, 0x10, 0xa4,
  0xd3, 0x26, 0x04, 0xc5, 0xe6, 0xbe, 0xaa, 0xd0, 0x99, 0xe1, 0xc4, 0x2c,
  0xc9, 0x01, 0xe9, 0xa4, 0x04, 0xb7, 0x14, 0xf4, 0xc7, 0xee, 0xf7, 0x0a,
  0xe8, 0xf3, 0x3c, 0xfb, 0x3e, 0x10, 0xe4, 0xb0, 0x31, 0x4f, 0xec, 0xfb,
  0x1e, 0xd5, 0x15, 0x32, 0xb0, 0xc4, 0x14, 0x11, 0xe0, 0x1c, 0x04, 0xb1,
  0xda, 0xbb, 0xe7, 0xf7, 0x04, 0xdc, 0x1d, 0x3f, 0xe6, 0x21, 0xe5, 0x49,
  0xfd, 0xc3, 0x5c, 0x0a, 0x16, 0x2b, 0x26, 0x05, 0x32, 0x30, 0xf6, 0x3e,
  0x46, 0x31, 0x56, 0xf8, 0x55, 0xf1, 0x13, 0x2b, 0x4a, 0x58, 0xfb, 0x05,
  0x41, 0x43, 0x69, 0x2f, 0xeb, 0xcd, 0x77, 0xb4, 0xe2, 0xff, 0x11, 0xd9,
  0x62, 0x00, 0xe7, 0x46, 0x42, 0x4d, 0x02, 0x51, 0x30, 0x27, 0x4b, 0xf7,
  0x37, 0x3b, 0xed, 0x08, 0xf9, 0xc6, 0xf0, 0xe1, 0x30, 0x1a, 0x3a, 0xf9,
  0x18, 0x5f, 0x4b, 0xea, 0x13, 0xd0, 0x31, 0xff, 0xf4, 0x0c, 0x37, 0xf0,
  0x29, 0x0b, 0x17, 0xd5, 0xcd, 0x22, 0x52, 0xa0, 0x37, 0x1f, 0xf2, 0xfe,
  0x2f, 0x2b, 0xab, 0xe7, 0x39, 0x3e, 0x20, 0x07, 0x15, 0xd7, 0xae, 0xf4,
  0x01, 0xbf, 0x52, 0x52, 0xd7, 0xc9, 0x10, 0xfe, 0xf2, 0xe0, 0x4a, 0xfb,
  0xda, 0x81, 0xf0, 0x85, 0x9e, 0x1b, 0xd0, 0xad, 0x18, 0xf2, 0x07, 0x17,
  0xdf, 0xb9, 0xaf, 0xd6, 0x07, 0x24, 0xcc, 0xd3, 0x11, 0xfa, 0x1e, 0x1e,
  0xb0, 0xf7, 0xe3, 0xbf, 0xc7, 0x0c, 0x0a, 0xcf, 0xe3, 0xab, 0xe9, 0x6c,
  0xd7, 0xa0, 0x4a, 0xde, 0x37, 0xe8, 0x9d, 0xf1, 0x0d, 0xf8, 0x00, 0x05,
  0x24, 0xed, 0xfc, 0x0b, 0xff, 0x25, 0x1c, 0xf9, 0x08, 0x0a, 0x19, 0xdc,
  0x0d, 0xe7, 0xef, 0xf0, 0xf0, 0xf4, 0xf2, 0x0e, 0xe5, 0xe0, 0x00, 0x07,
  0xeb, 0xe8, 0xf3, 0x0f, 0xdc, 0x16, 0xee, 0x1a, 0xe8, 0x0a, 0xf5, 0x12,
  0xe8, 0xee, 0xe1, 0xfa, 0xda, 0xcb, 0x0c, 0x00, 0x03, 0xf5, 0xde, 0x0c,
  0x09, 0x00, 0x97, 0x10, 0xee, 0x1b, 0x17, 0xe7, 0xf1, 0x11, 0x26, 0xed,
  0x11, 0xd3, 0xe4, 0x04, 0xee, 0xd0, 0xaa, 0x0d, 0xe9, 0xeb, 0x20, 0xef,
  0x06, 0xe1, 0x01, 0xf8, 0xef, 0xee, 0x0c, 0x1d, 0xd7, 0xd0, 0x81, 0x01,
  0xe8, 0xed, 0xec, 0x05, 0xea, 0xe8, 0xf2, 0xea, 0xfc, 0x04, 0x17, 0x04,
  0x0a, 0xe5, 0xc1, 0x1d, 0x08, 0x0c, 0xde, 0x04, 0xf0, 0x16, 0x01, 0xf6,
  0xf3, 0xde, 0x04, 0xed, 0x0f, 0xee, 0x1b, 0xfa, 0xf6, 0xdc, 0x03, 0xdf,
  0xee, 0x0b, 0xfc, 0x04, 0xea, 0xf8, 0x1e, 0x08, 0xf4, 0x0a, 0x01, 0x08,
  0x03, 0x08, 0x14, 0xcf, 0x0a, 0x07, 0x2b, 0xf7, 0x19, 0x09, 0x15, 0x03,
  0x0c, 0xfd, 0x35, 0xd9, 0x19, 0xef, 0xe3, 0x1d, 0xf0, 0x21, 0xdc, 0x00,
  0x1e, 0x04, 0xf0, 0x0d, 0x14, 0x04, 0x57, 0xde, 0x0e, 0xfa, 0x13, 0x15,
  0x1c, 0xd9, 0xfe, 0xf2, 0xee, 0x0d, 0x04, 0x04, 0x20, 0x03, 0x21, 0x1a,
  0x19, 0x24, 0xf9, 0xf1, 0x14, 0xf9, 0x0e, 0xde, 0x04, 0x22, 0x15, 0xe3,
  0xe7, 0x02, 0x2b, 0xf6, 0x12, 0x18, 0xf8, 0xef, 0xf0, 0x0a, 0xe3, 0x0c,
  0xfd, 0x0b, 0xfc, 0xf8, 0xe1, 0x14, 0x09, 0xef, 0x15, 0xde, 0x1d, 0x1f,
  0xed, 0xd5, 0xcf, 0x1d, 0xfc, 0x0a, 0x08, 0x02, 0x0f, 0xf1, 0x30, 0xf2,
  0x0c, 0xea, 0xe5, 0x13, 0x20, 0x10, 0x12, 0xe2, 0x13, 0xcf, 0xec, 0xf9,
  0xcd, 0x29, 0xf1, 0xd5, 0x05, 0x3f, 0x14, 0xf1, 0xf6, 0xdc, 0x43, 0x26,
  0xf0, 0x2d, 0x5a, 0x11, 0x0b, 0x12, 0xa8, 0xeb, 0xc6, 0x35, 0x34, 0xcb,
  0x02, 0xe3, 0xe8, 0xdd, 0xdb, 0x24, 0xdd, 0xcc, 0x23, 0xee, 0xdc, 0x1d,
  0x23, 0x43, 0xbb, 0x00, 0xed, 0x2f, 0x2f, 0x2c, 0x1b, 0xd6, 0x2f, 0x09,
  0x32, 0x01, 0xfe, 0xfb, 0x13, 0x1e, 0xed, 0x0f, 0xd1, 0x1d, 0x2e, 0x2f,
  0x0e, 0x05, 0x43, 0xd1, 0xd0, 0xc8, 0xa3, 0x26, 0x2d, 0x35, 0xdd, 0x11,
  0x0f, 0x33, 0x23, 0x2e, 0x30, 0xb8, 0x39, 0x07, 0xd6, 0xe8, 0x0d, 0x1d,
  0x18, 0xfc, 0x0f, 0x37, 0xee, 0xe4, 0x37, 0xcd, 0x0b, 0xdc, 0xc8, 0xf1,
  0x10, 0x10, 0xe1, 0x39, 0xf9, 0x16, 0xc8, 0x43, 0x44, 0xc2, 0x28, 0x06,
  0x3e, 0xfb, 0x03, 0xd1, 0x0f, 0xcf, 0xb9, 0xd8, 0xcb, 0x36, 0xca, 0xd2,
  0xe9, 0x2b, 0x0a, 0x16, 0x3b, 0xe3, 0x08, 0x2e, 0x21, 0x32, 0x2f, 0x06,
  0x3e, 0xd8, 0x14, 0x21, 0x2f, 0x23, 0xfe, 0x3a, 0xc7, 0x29, 0xef, 0x44,
  0x20, 0x3d, 0xc9, 0xe0, 0xe3, 0x4b, 0x25, 0x1a, 0x1a, 0xc7, 0x23, 0xee,
  0xe6, 0xf7, 0xf6, 0xe0, 0x08, 0x12, 0xc1, 0x3c, 0xe9, 0x2d, 0x30, 0x10,
  0xe7, 0xe7, 0x32, 0xe6, 0x19, 0x08, 0x40, 0x0b, 0xf3, 0xfc, 0x18, 0x27,
  0x29, 0x81, 0xc4, 0xef, 0xec, 0x26, 0x17, 0x1f, 0xf2, 0x3c, 0x12, 0x30,
  0x3f, 0xe7, 0xc1, 0xf0, 0xd4, 0x19, 0x2d, 0x2f, 0x24, 0xdf, 0x27, 0xf3,
  0x3a, 0x2c, 0xf3, 0x31, 0x3a, 0xc0, 0xa8, 0x02, 0x37, 0x2b, 0xd4, 0xf0,
  0x18, 0x2f, 0x34, 0x19, 0x1b, 0xd5, 0x3f, 0x09, 0x09, 0x1f, 0x3c, 0xf2,
  0xe0, 0x07, 0xbd, 0xd1, 0xed, 0x32, 0xe5, 0xf8, 0xe9, 0xc4, 0xef, 0xe3,
  0x1a, 0x24, 0xa1, 0xf6, 0x15, 0xcc, 0xfb, 0xed, 0x07, 0xe7, 0x16, 0x1a,
  0x22, 0xf6, 0xdd, 0xdf, 0xdd, 0x16, 0xee, 0xfc, 0xfb, 0x10, 0x36, 0x1c,
  0x19, 0x0f, 0x03, 0x11, 0x0c, 0xf6, 0xfd, 0x28, 0x01, 0xf5, 0x1a, 0x05,
  0xf8, 0x05, 0x0b, 0x18, 0x19, 0x1d, 0xf4, 0x11, 0xe8, 0xe0, 0x11, 0x11,
  0x04, 0x19, 0x30, 0x07, 0xf8, 0x17, 0x19, 0xec, 0x17, 0x0e, 0xd2, 0xde,
  0xfa, 0xef, 0x0c, 0x01, 0xe4, 0xfc, 0xdf, 0x17, 0x0b, 0xdd, 0x38, 0xf3,
  0x2b, 0xf7, 0x17, 0x1b, 0xd8, 0xf8, 0x03, 0xfc, 0xdd, 0xe2, 0x05, 0xe6,
  0xfa, 0x15, 0x1a, 0xd8, 0x02, 0xe7, 0x25, 0x05, 0x0e, 0x03, 0xed, 0xdf,
  0x1e, 0xd8, 0x60, 0x04, 0xdd, 0xfc, 0x0e, 0xee, 0xf5, 0xe3, 0xfa, 0x01,
  0xdb, 0x01, 0x11, 0x20, 0xf2, 0xdf, 0xeb, 0xfc, 0xf0, 0xf2, 0x0f, 0xe6,
  0xf1, 0xfd, 0xf3, 0xe6, 0xd8, 0x0c, 0xf5, 0x18, 0xfd, 0xf5, 0x10, 0xe2,
  0xe8, 0xfe, 0xda, 0xe2, 0xe3, 0xfd, 0xe3, 0xf9, 0xe5, 0x10, 0xd9, 0xe0,
  0x1e, 0x0a, 0xc6, 0x10, 0xf7, 0xca, 0x04, 0x09, 0xe2, 0x01, 0xf8, 0xfe,
  0xe7, 0xfb, 0x20, 0x25, 0x17, 0xd1, 0xc4, 0x22, 0xfa, 0x02, 0x15, 0x14,
  0xdf, 0xfd, 0xe1, 0x09, 0x06, 0xfb, 0xc9, 0x05, 0x06, 0x07, 0x81, 0x09,
  0xfb, 0xfe, 0x05, 0x20, 0x19, 0x1c, 0xea, 0xf9, 0xe2, 0x12, 0xe6, 0x0d,
  0xeb, 0x29, 0x0d, 0xf1, 0x1f, 0xd2, 0xfd, 0xfd, 0xec, 0xfb, 0x1b, 0x1f,
  0xec, 0x01, 0x0f, 0xd8, 0x10, 0xed, 0x14, 0xfd, 0xfe, 0xe7, 0x26, 0x0b,
  0xf7, 0x1f, 0x0e, 0xdf, 0xe5, 0xd7, 0x03, 0x01, 0xef, 0x0b, 0xdb, 0x16,
  0x1a, 0xe5, 0x17, 0xd5, 0xe6, 0xe4, 0x04, 0x0f, 0x0a, 0xff, 0x13, 0xea,
  0xd7, 0x0d, 0x0b, 0xf5, 0xed, 0x1a, 0x05, 0x1a, 0xf8, 0xf8, 0xe7, 0xf7,
  0x15, 0x23, 0xfd, 0xf7, 0x18, 0xf2, 0xd6, 0x11, 0xe7, 0x0e, 0x09, 0xef,
  0x0b, 0x03, 0xe6, 0xfa, 0xe3, 0x32, 0x0b, 0x10, 0x13, 0xfe, 0xf6, 0x0a,
  0xeb, 0x0e, 0xf3, 0x13, 0x11, 0x02, 0x15, 0xf8, 0x1c, 0xde, 0x12, 0xf3,
  0xd3, 0xf7, 0x2d, 0x1b, 0xef, 0x06, 0x1e, 0xe8, 0x1d, 0x0e, 0xf7, 0x06,
  0x15, 0xf6, 0xe1, 0xe3, 0x1a, 0xf3, 0xcd, 0xea, 0x03, 0x1f, 0xf5, 0xed,
  0x12, 0x0d, 0x0a, 0x0c, 0x02, 0xf5, 0xed, 0x0b, 0x14, 0x0a, 0x15, 0xf2,
  0xfc, 0x26, 0x07, 0xee, 0xdf, 0xe1, 0x22, 0x19, 0xf4, 0xe2, 0xf8, 0x03,
  0x1b, 0xf0, 0x28, 0x20, 0x1b, 0x16, 0xf6, 0xff, 0xf1, 0xe7, 0x05, 0xf4,
  0x1e, 0x17, 0xe6, 0xfb, 0xf3, 0x00, 0x18, 0x09, 0xe0, 0x15, 0xe9, 0xe9,
  0xe9, 0xfa, 0x1e, 0xd2, 0x05, 0x06, 0xdb, 0x11, 0xf7, 0x18, 0x2b, 0x1a,
  0x06, 0xea, 0x14, 0xe1, 0xe9, 0x11, 0xef, 0xf9, 0xff, 0xff, 0xe9, 0xf7,
  0xe0, 0x24, 0xfe, 0x1f, 0x1b, 0xe1, 0xec, 0xf2, 0x0e, 0xef, 0x06, 0x1f,
  0x10, 0x18, 0x02, 0x0a, 0x22, 0x14, 0xfc, 0x1c, 0xf8, 0xf9, 0xea, 0x03,
  0xff, 0x13, 0xf0, 0xdb, 0xfa, 0xcb, 0xee, 0x04, 0x02, 0x08, 0x0f, 0xed,
  0x07, 0xc7, 0x1a, 0x17, 0x10, 0xff, 0xfb, 0xf7, 0x1f, 0x0c, 0x01, 0x01,
  0xe1, 0xfe, 0x31, 0xfb, 0x20, 0xea, 0x22, 0xfb, 0xf4, 0xf7, 0x1a, 0xfb,
  0xf0, 0xf9, 0xf5, 0xe2, 0xf7, 0xfd, 0x81, 0x18, 0x14, 0x11, 0x11, 0xdf,
  0x07, 0xf9, 0x14, 0x00, 0xfe, 0xd9, 0xf7, 0xe9, 0x0b, 0x20, 0xe5, 0xf6,
  0xe6, 0xe1, 0xe0, 0x1f, 0x08, 0xfc, 0xf8, 0xe8, 0x0c, 0xfd, 0x00, 0xee,
  0x0f, 0x07, 0x81, 0xea, 0xe8, 0xf8, 0xdc, 0xfb, 0xe1, 0x0c, 0x0f, 0xfa,
  0xe9, 0xf9, 0xe6, 0xf9, 0xe6, 0xf8, 0x32, 0xfb, 0xe8, 0xdf, 0xef, 0xd0,
  0xed, 0xe1, 0x03, 0x09, 0xe9, 0x06, 0xfe, 0xef, 0xfa, 0xf0, 0xf3, 0xf9,
  0xe7, 0x22, 0x03, 0x1c, 0xe1, 0xfc, 0x00, 0x10, 0xe9, 0xf6, 0xef, 0xeb,
  0xda, 0xd9, 0x1c, 0xf0, 0xc9, 0xfb, 0xe6, 0xf1, 0xfc, 0xf9, 0xf8, 0x15,
  0x0c, 0xf5, 0xdd, 0x0c, 0xd5, 0xed, 0xec, 0xeb, 0xf8, 0xf9, 0x06, 0xf7,
  0x06, 0xe4, 0xe5, 0xe5, 0x00, 0xee, 0xec, 0xdb, 0xe3, 0xc8, 0x12, 0x25,
  0xeb, 0xdd, 0x0c, 0x17, 0xfd, 0xdf, 0xfd, 0x10, 0x18, 0x0f, 0x0e, 0x02,
  0x09, 0xe7, 0x15, 0xfe, 0xf7, 0x0e, 0x25, 0xe3, 0x0b, 0x1b, 0x0e, 0xe8,
  0xfd, 0x19, 0x03, 0x19, 0xfe, 0x09, 0xed, 0xf2, 0xeb, 0xfa, 0x16, 0xdb,
  0x12, 0x09, 0xee, 0x02, 0xfe, 0x0a, 0x0b, 0xfc, 0xf7, 0xe6, 0xfe, 0xe8,
  0x21, 0xe6, 0xe6, 0x26, 0x18, 0xea, 0xf8, 0x03, 0x11, 0x15, 0x1f, 0x10,
  0x13, 0xf4, 0x46, 0x05, 0x17, 0xfa, 0x04, 0x0a, 0xf5, 0x30, 0xea, 0xdf,
  0x18, 0x06, 0x14, 0x0e, 0x1d, 0x2f, 0x3d, 0x25, 0x0f, 0xea, 0x1a, 0x16,
  0x10, 0xe0, 0x0f, 0x22, 0x05, 0x06, 0x1c, 0x18, 0xf9, 0x36, 0xc4, 0xd6,
  0x0c, 0xf7, 0x01, 0x08, 0x01, 0x01, 0xf4, 0x00, 0x13, 0x01, 0xef, 0x04,
  0x0f, 0x2d, 0x08, 0xeb, 0x2d, 0xe0, 0x20, 0xfb, 0x18, 0x0d, 0xe6, 0xe8,
  0x0d, 0xee, 0xf3, 0x0e, 0xea, 0xfd, 0x0e, 0x15, 0xfa, 0xdc, 0x2a, 0x08,
  0xeb, 0x0b, 0x04, 0xf6, 0xdc, 0x1f, 0x0b, 0x13, 0x01, 0x1f, 0xf0, 0xc7,
  0xfe, 0xf6, 0xf5, 0xe8, 0xe1, 0x15, 0xde, 0xe9, 0x39, 0xf3, 0x2f, 0xd1,
  0x16, 0xf5, 0x41, 0x4b, 0xe1, 0x12, 0xf8, 0xbc, 0xeb, 0xae, 0x04, 0x3b,
  0xbe, 0xb8, 0x15, 0xee, 0xc6, 0x34, 0xff, 0x36, 0x00, 0x32, 0xf7, 0x39,
  0x28, 0x18, 0xf6, 0x39, 0xbd, 0xd2, 0x5b, 0xf5, 0xf0, 0xd0, 0x99, 0x35,
  0xd3, 0x2f, 0xe2, 0xe9, 0xfe, 0x39, 0x53, 0xbf, 0x5c, 0x2e, 0x50, 0xfb,
  0xd4, 0x97, 0x37, 0xf8, 0xd4, 0xc1, 0xe9, 0xec, 0xc2, 0xac, 0x53, 0xe8,
  0x17, 0xc6, 0xef, 0x0d, 0xe7, 0x4b, 0x4d, 0xce, 0x14, 0xaf, 0x28, 0xd3,
  0x14, 0xb0, 0xdb, 0xaf, 0xe8, 0x36, 0x20, 0xeb, 0x44, 0x26, 0x43, 0xbd,
  0x0e, 0xcf, 0xe7, 0xb6, 0xfa, 0xf6, 0xf5, 0x0d, 0xde, 0x42, 0x2d, 0xd6,
  0x21, 0xe0, 0xed, 0xdc, 0x6c, 0x00, 0xe4, 0xa8, 0xb1, 0x27, 0x4c, 0x1a,
  0xcf, 0xd9, 0xa8, 0xfb, 0xec, 0x1e, 0xbf, 0x57, 0x22, 0xb3, 0x71, 0x0f,
  0x4a, 0xca, 0xc3, 0x36, 0x12, 0xb6, 0x00, 0x45, 0x40, 0xd3, 0x3f, 0xcb,
  0x06, 0xbb, 0xf4, 0x26, 0x42, 0x0a, 0xd4, 0x33, 0xf1, 0xef, 0x97, 0xbf,
  0x22, 0x27, 0x32, 0xdb, 0x67, 0xdb, 0xb3, 0x9d, 0xd0, 0xd6, 0x4c, 0xd8,
  0x26, 0xb8, 0x3a, 0xca, 0xe1, 0xd1, 0x63, 0x15, 0x14, 0x23, 0x20, 0x36,
  0x0f, 0x34, 0xfd, 0x4b, 0x25, 0xe5, 0xf4, 0x42, 0x2b, 0x0f, 0xfd, 0x23,
  0x2b, 0x12, 0xd4, 0xef, 0xc9, 0x0b, 0x44, 0x21, 0xab, 0xd8, 0x07, 0xdc,
  0xd5, 0xa6, 0x4a, 0x47, 0x01, 0x81, 0x13, 0xc9, 0xe8, 0x23, 0xf5, 0x12,
  0x04, 0xcd, 0xd2, 0x39, 0x88, 0xf1, 0xfa, 0xbe, 0xde, 0xc4, 0x1c, 0xb2,
  0xa2, 0xe4, 0x06, 0x09, 0xf3, 0xcb, 0xa5, 0xd1, 0xeb, 0x37, 0xa1, 0x41,
  0xfc, 0xaf, 0x7b, 0x2b, 0x3e, 0x0f, 0x26, 0x00, 0xe7, 0x2d, 0x24, 0xec,
  0xe6, 0x08, 0xb9, 0xfc, 0xfb, 0x21, 0x32, 0xb8, 0x07, 0xdd, 0xe2, 0x32,
  0x01, 0xcf, 0x16, 0x34, 0x23, 0xeb, 0x33, 0x13, 0x03, 0xf7, 0x27, 0xcf,
  0xd3, 0xd2, 0xfd, 0x13, 0xf2, 0xd6, 0x36, 0xfb, 0x06, 0xcc, 0xb7, 0xd0,
  0xd5, 0x30, 0xfa, 0x24, 0xf2, 0xf8, 0xed, 0x38, 0x12, 0x22, 0x21, 0xf2,
  0x12, 0x0e, 0x27, 0xc1, 0xeb, 0x03, 0xde, 0xe3, 0x22, 0x36, 0xe2, 0x11,
  0xc8, 0x29, 0x11, 0x12, 0x2a, 0x3d, 0xec, 0x3d, 0x34, 0xd1, 0xee, 0xd8,
  0xee, 0xdb, 0xee, 0xdf, 0xcf, 0x0f, 0xe4, 0xf2, 0x10, 0xde, 0x42, 0xde,
  0x13, 0x04, 0x40, 0x43, 0xf1, 0x19, 0x04, 0x02, 0xeb, 0xe8, 0x31, 0xef,
  0x30, 0xdd, 0xea, 0xd5, 0xe3, 0xb8, 0xfd, 0x0b, 0x1b, 0x19, 0x1d, 0xf5,
  0xff, 0x1b, 0xc4, 0x24, 0xf5, 0xfb, 0xba, 0x3f, 0xe6, 0xb4, 0xfc, 0x35,
  0xf2, 0xf9, 0xfc, 0x2d, 0x1a, 0xda, 0x13, 0x37, 0xdd, 0x0f, 0x4e, 0x2e,
  0xe9, 0xb7, 0x06, 0x08, 0xd8, 0xf7, 0xbe, 0x27, 0x13, 0xd0, 0xe8, 0x14,
  0x05, 0x00, 0x81, 0x09, 0xed, 0x04, 0xe9, 0x0e, 0xd1, 0x0d, 0x30, 0x2f,
  0xff, 0xff, 0xcc, 0x27, 0xd8, 0xb6, 0xed, 0x0d, 0xcc, 0xc2, 0x1a, 0x03,
  0x05, 0xe0, 0xdb, 0x2f, 0xeb, 0xf6, 0x28, 0x43, 0xfe, 0xf1, 0xbe, 0xc3,
  0x21, 0xf1, 0xbd, 0xfb, 0x11, 0x35, 0xfc, 0xd8, 0x2b, 0xec, 0xd7, 0x44,
  0x32, 0x40, 0xb8, 0x1c, 0xfe, 0xf6, 0x3a, 0xdc, 0x11, 0xf9, 0xea, 0xfd,
  0xc3, 0x0f, 0xfc, 0x39, 0x10, 0x0d, 0x57, 0xc5, 0x26, 0xdc, 0xfe, 0xf4,
  0x29, 0xed, 0xbd, 0x16, 0xdd, 0x22, 0x2a, 0x2a, 0xea, 0x37, 0xc3, 0x17,
  0x23, 0xe0, 0x00, 0xf6, 0x1a, 0x0a, 0xf9, 0x29, 0xbf, 0xaf, 0x09, 0xa8,
  0x56, 0x32, 0xeb, 0xbb, 0x25, 0xcc, 0x03, 0x32, 0x35, 0xb3, 0x0e, 0x20,
  0x09, 0x52, 0x06, 0x3c, 0xc9, 0x38, 0x81, 0x36, 0x35, 0x32, 0xc8, 0xe5,
  0xed, 0x1c, 0x39, 0xab, 0x2c, 0xd9, 0x3e, 0x39, 0x23, 0xe4, 0x92, 0x25,
  0xcb, 0xe6, 0x3f, 0xa6, 0x30, 0x46, 0xb9, 0x39, 0x1b, 0xf6, 0xc8, 0xf0,
  0xaa, 0xfa, 0x21, 0xa4, 0xe3, 0x5f, 0x01, 0xb5, 0xdb, 0xba, 0x03, 0xb7,
  0x33, 0x39, 0x28, 0xb2, 0x4c, 0xb7, 0x95, 0xd8, 0x0d, 0x2a, 0xb7, 0x05,
  0xf9, 0xe7, 0xad, 0xf4, 0xcc, 0x26, 0x68, 0x36, 0x12, 0x1b, 0x11, 0xd4,
  0xc9, 0x1c, 0x42, 0x1a, 0xe9, 0x42, 0xf8, 0x0b, 0xf2, 0x3a, 0xb3, 0xa7,
  0xd9, 0x2c, 0x6d, 0xeb, 0xda, 0x12, 0xff, 0x09, 0xb3, 0xd3, 0x10, 0xeb,
  0x3d, 0xf2, 0x1c, 0xf3, 0x12, 0x18, 0x9e, 0xb9, 0xce, 0x66, 0x14, 0x38,
  0xbb, 0x13, 0xfb, 0xf4, 0xc1, 0x44, 0x47, 0x0e, 0x18, 0xed, 0xf3, 0xd9,
  0xbf, 0x59, 0xfb, 0xa4, 0x04, 0xe4, 0x59, 0xe2, 0x1c, 0xc8, 0xc1, 0x13,
  0x2a, 0x11, 0xed, 0xa8, 0x0e, 0x3d, 0x3a, 0xfe, 0x0d, 0x22, 0x9c, 0xf3,
  0xf8, 0xee, 0x19, 0x3d, 0xc3, 0xfc, 0xe2, 0xad, 0x03, 0xe2, 0xdf, 0x33,
  0x11, 0xfa, 0x1e, 0x10, 0x43, 0x36, 0x2f, 0xd4, 0x06, 0x20, 0xc5, 0xf5,
  0xc6, 0x78, 0xc8, 0x20, 0x2d, 0xe8, 0x34, 0xdf, 0x0a, 0xd9, 0x06, 0x22,
  0xd2, 0x00, 0x62, 0xfe, 0x28, 0xe0, 0xc4, 0x6a, 0xd8, 0x0c, 0x0e, 0xba,
  0x05, 0xe7, 0xf3, 0x15, 0x39, 0x18, 0xa4, 0x3d, 0xb4, 0x50, 0xbe, 0x20,
  0xa6, 0x6b, 0xe1, 0x31, 0xf5, 0x9d, 0xcb, 0x05, 0x04, 0x01, 0x93, 0xc1,
  0xe9, 0x1a, 0xe0, 0xc1, 0x26, 0xd6, 0x66, 0xde, 0xd4, 0xe7, 0xcb, 0x24,
  0xf0, 0x10, 0xc5, 0xe7, 0xf7, 0xd5, 0x07, 0xd1, 0x15, 0x1f, 0x15, 0xf7,
  0xde, 0xb3, 0x05, 0xd6, 0xf1, 0xfd, 0x3e, 0x02, 0x1b, 0x28, 0x33, 0x21,
  0x0b, 0xc9, 0x03, 0x1c, 0xd9, 0xdf, 0xdd, 0x2e, 0xcf, 0x18, 0xbb, 0x00,
  0xfc, 0x25, 0x26, 0xe4, 0xea, 0x09, 0x29, 0x11, 0x27, 0xe3, 0xd3, 0xfe,
  0x2e, 0xfd, 0xfe, 0x0a, 0xea, 0x0f, 0x1a, 0x16, 0xe5, 0x03, 0x1e, 0xf1,
  0x06, 0xd4, 0xdb, 0xe8, 0xd7, 0xdf, 0xe5, 0x06, 0x2a, 0x0d, 0xea, 0xd9,
  0xce, 0x0b, 0xda, 0x19, 0xe2, 0xd8, 0xcd, 0x28, 0xdd, 0x32, 0x03, 0x1f,
  0x09, 0x12, 0x06, 0x19, 0xe2, 0x12, 0x22, 0xd3, 0x1e, 0x20, 0x0e, 0xdd,
  0xc9, 0xcf, 0xa3, 0xd7, 0xfa, 0xe8, 0xfa, 0x0a, 0xfc, 0x0a, 0xdd, 0xd2,
  0x13, 0xea, 0x1d, 0x01, 0xde, 0xfb, 0xe0, 0xe7, 0xf6, 0xd5, 0x0f, 0xe2,
  0xf9, 0x0c, 0xd8, 0xd6, 0x2f, 0xec, 0x1a, 0xee, 0xfb, 0xc4, 0x81, 0x1c,
  0x08, 0x05, 0x1c, 0x1b, 0xd0, 0xf4, 0xd8, 0x16, 0xe8, 0x2b, 0x45, 0x1a,
  0x05, 0x1b, 0x43, 0xcd, 0xd1, 0x1d, 0xfa, 0x04, 0x2f, 0xee, 0xbd, 0x2b,
  0x21, 0x31, 0xd3, 0x0a, 0x22, 0x47, 0x30, 0xff, 0x04, 0xee, 0x1f, 0xde,
  0x16, 0xc2, 0xb1, 0x00, 0xe1, 0x45, 0x20, 0x13, 0x13, 0xf6, 0x5b, 0x17,
  0xf5, 0x3c, 0xe1, 0x2a, 0x07, 0xda, 0x12, 0x0b, 0xed, 0xf3, 0x09, 0xdc,
  0x20, 0x0a, 0xfe, 0xd2, 0x02, 0xfb, 0xf8, 0x17, 0xf5, 0x06, 0x27, 0xd5,
  0x09, 0x14, 0x25, 0x12, 0x06, 0x45, 0xf7, 0xfe, 0x03, 0xc8, 0x23, 0x25,
  0x07, 0xa0, 0xf8, 0xeb, 0x06, 0xf1, 0xeb, 0xc5, 0xee, 0x20, 0x7c, 0xe0,
  0xe0, 0xef, 0xcb, 0xdf, 0x2e, 0xe5, 0xf1, 0xcf, 0x61, 0x14, 0x2e, 0x13,
  0x4a, 0xbd, 0x24, 0xaf, 0x40, 0xd2, 0x2f, 0x0c, 0x42, 0x03, 0x26, 0x3f,
  0xd1, 0xcc, 0xde, 0xf6, 0xe4, 0x53, 0x02, 0x12, 0x53, 0xbe, 0xb7, 0x19,
  0xb1, 0xd9, 0xfa, 0x21, 0xde, 0x61, 0x10, 0x23, 0x0e, 0x67, 0xd6, 0xc3,
  0x01, 0xb4, 0x5b, 0xb7, 0x17, 0xfb, 0x39, 0x0d, 0x23, 0xe9, 0x55, 0xc3,
  0x5f, 0x0e, 0xf7, 0x03, 0xf4, 0x09, 0xb6, 0x4e, 0xd1, 0xf0, 0xe0, 0x00,
  0x08, 0x0c, 0xd7, 0xeb, 0xb1, 0x1a, 0x7f, 0x17, 0x19, 0xd6, 0x20, 0x58,
  0xe0, 0xe7, 0xeb, 0xac, 0xdf, 0x7b, 0xfd, 0xf5, 0x12, 0xb5, 0x07, 0xa7,
  0x31, 0xf1, 0x1a, 0xeb, 0x03, 0x4d, 0x10, 0xd0, 0xbd, 0x46, 0x0c, 0x30,
  0x32, 0x55, 0x06, 0x2e, 0x51, 0x1d, 0xc7, 0x3a, 0xc6, 0xff, 0xfe, 0x3b,
  0xc0, 0x40, 0x03, 0xb4, 0x0c, 0xe9, 0x3d, 0x21, 0xe4, 0x51, 0xe9, 0x40,
  0x48, 0x47, 0xd2, 0xc1, 0x1b, 0x62, 0xb8, 0xb0, 0xa0, 0x09, 0xbf, 0xc8,
  0xdd, 0x3d, 0xe8, 0xf4, 0x35, 0xc1, 0x23, 0x3c, 0xe5, 0x03, 0xe0, 0x0c,
  0x0a, 0xce, 0x63, 0x2b, 0x49, 0x2a, 0x39, 0xeb, 0x03, 0xcd, 0x32, 0xf0,
  0xf2, 0xfb, 0x37, 0x0d, 0xef, 0x28, 0xb3, 0xe4, 0xa0, 0xf0, 0x49, 0x12,
  0x28, 0x4a, 0xfe, 0x20, 0x3f, 0xf7, 0xd6, 0xd8, 0xad, 0xc7, 0xb9, 0xff,
  0xb2, 0x8f, 0x02, 0x3c, 0x02, 0xb1, 0x34, 0xee, 0x32, 0xbf, 0x4a, 0xb0,
  0x23, 0x27, 0xc2, 0x37, 0x52, 0xec, 0xa6, 0xc8, 0xf0, 0x39, 0x33, 0xef,
  0xea, 0xe1, 0x43, 0xcf, 0x07, 0xbb, 0xf7, 0xee, 0xb7, 0xd2, 0x33, 0x14,
  0xbb, 0xc4, 0xfb, 0x41, 0x1f, 0xf1, 0x04, 0xe9, 0xe0, 0x32, 0x06, 0xfb,
  0x2c, 0x0e, 0xa7, 0x12, 0xa5, 0xd1, 0x46, 0x2d, 0x03, 0xf0, 0x21, 0x16,
  0x1f, 0xef, 0x1f, 0x18, 0x38, 0xe2, 0xef, 0xf2, 0x09, 0x25, 0x1d, 0xdd,
  0xd1, 0xf9, 0xfb, 0x27, 0x2d, 0x05, 0xf2, 0x37, 0x20, 0xef, 0x03, 0x01,
  0x00, 0x0d, 0x67, 0xa9, 0x0e, 0xa8, 0xc4, 0xdc, 0x04, 0x0e, 0xe0, 0x2d,
  0xcd, 0xa2, 0x19, 0x28, 0x11, 0xef, 0xcd, 0xee, 0xc5, 0xe0, 0x1a, 0xed,
  0xe7, 0x4e, 0xf2, 0xdc, 0x18, 0xc5, 0xed, 0x0e, 0xf7, 0xea, 0x4c, 0xeb,
  0xe9, 0xff, 0xcd, 0x16, 0x14, 0xfa, 0x0d, 0xed, 0x38, 0x15, 0xff, 0x2e,
  0xf4, 0x15, 0x1a, 0xe2, 0xbd, 0xe3, 0xc4, 0xc8, 0x1e, 0x03, 0x04, 0x03,
  0x25, 0xea, 0xea, 0x0a, 0xde, 0x21, 0x1e, 0xd5, 0xda, 0xc1, 0x2e, 0xc2,
  0xbc, 0xd8, 0x14, 0x42, 0x13, 0x7f, 0xd0, 0xf1, 0xe4, 0x18, 0x35, 0xd6,
  0x04, 0x32, 0xfb, 0xea, 0x4d, 0x33, 0xa3, 0xb0, 0x4a, 0x13, 0x20, 0xce,
  0x11, 0xe9, 0x2f, 0xde, 0xc8, 0x18, 0x39, 0x27, 0x30, 0x3f, 0x33, 0xeb,
  0x0b, 0xfa, 0x32, 0x29, 0xdf, 0x09, 0x36, 0xe7, 0x13, 0x0f, 0xd2, 0xd1,
  0xd6, 0xce, 0x4c, 0xbf, 0xfa, 0xdd, 0x14, 0x0f, 0x02, 0x17, 0x1e, 0xd1,
  0xee, 0xe1, 0x14, 0xde, 0xf8, 0xe3, 0x8e, 0x25, 0xdb, 0x1c, 0xf6, 0xfd,
  0x3d, 0xd1, 0xee, 0xea, 0x01, 0xfc, 0x43, 0xd9, 0x0e, 0x17, 0x69, 0xe8,
  0x01, 0x10, 0x0f, 0x06, 0x25, 0xfc, 0xbf, 0x08, 0x35, 0x1d, 0xd9, 0xe6,
  0xe3, 0xf3, 0x42, 0xb8, 0x06, 0xe5, 0xd8, 0x1f, 0xcf, 0x14, 0xc5, 0xd8,
  0x0a, 0x28, 0x3a, 0xef, 0x28, 0x16, 0x97, 0xef, 0x3d, 0x2b, 0x10, 0x18,
  0xc8, 0x17, 0xf2, 0xb6, 0xe9, 0xc2, 0xec, 0xf8, 0x29, 0x03, 0xea, 0xed,
  0xec, 0xf0, 0xd6, 0x20, 0xe7, 0xff, 0x01, 0x17, 0x25, 0x2b, 0xbd, 0x1b,
  0x36, 0xf3, 0x1e, 0x02, 0x26, 0x24, 0xf7, 0xd8, 0xe3, 0x18, 0xd5, 0xdc,
  0xf5, 0x1c, 0xf8, 0xe9, 0x1f, 0xfd, 0x3d, 0x19, 0x0d, 0x32, 0x06, 0xfb,
  0xdc, 0xf3, 0xe7, 0xfa, 0x05, 0x32, 0xe8, 0x22, 0x2a, 0x28, 0x0b, 0xd6,
  0x37, 0xd4, 0xe0, 0x32, 0x15, 0xd6, 0x08, 0x27, 0x27, 0xe4, 0x0d, 0x2c,
  0x25, 0xfc, 0xcd, 0x32, 0x3f, 0x06, 0xe8, 0xef, 0x12, 0xd0, 0xf4, 0xd4,
  0x13, 0x13, 0xee, 0x15, 0x19, 0x0b, 0x28, 0x22, 0xfb, 0xc6, 0xfc, 0x36,
  0x1b, 0x25, 0x1e, 0x0c, 0xda, 0x20, 0xe9, 0x09, 0xd6, 0xf8, 0xcc, 0xc4,
  0x1e, 0xf0, 0x0f, 0xfc, 0xf7, 0x31, 0xf8, 0xda, 0x0e, 0xd9, 0xd0, 0x12,
  0xf3, 0xe1, 0x81, 0x29, 0xef, 0xac, 0x2b, 0xfd, 0xde, 0xf3, 0x10, 0xde,
  0xdd, 0xff, 0xc3, 0xf1, 0xf0, 0xe6, 0xe4, 0xb6, 0xd0, 0x1b, 0xe2, 0xcb,
  0xce, 0x3c, 0xd3, 0x18, 0x30, 0xd9, 0x0b, 0x1f, 0xdf, 0xe6, 0xd4, 0x00,
  0xed, 0x05, 0x22, 0xe6, 0xd3, 0x0e, 0xf2, 0xdb, 0xe2, 0x12, 0x30, 0xc5,
  0x2d, 0xd3, 0x0f, 0x02, 0xba, 0xc3, 0xe2, 0x0d, 0xed, 0x0a, 0xd4, 0x00,
  0xee, 0xd2, 0x03, 0x18, 0x1a, 0xd3, 0xd2, 0x19, 0x06, 0xf4, 0x0b, 0xf4,
  0x0a, 0xf7, 0xbe, 0xd9, 0x06, 0x1f, 0x05, 0x02, 0x17, 0x14, 0x1a, 0x12,
  0x04, 0x02, 0x11, 0xf2, 0xec, 0xec, 0xfe, 0xf3, 0xe8, 0x0e, 0x38, 0x25,
  0xd4, 0xc3, 0x4c, 0xe6, 0x19, 0x03, 0xda, 0xd8, 0xde, 0x10, 0xee, 0xf4,
  0xe5, 0x07, 0xc7, 0x28, 0xfe, 0x3b, 0xf6, 0xfd, 0x0e, 0xf8, 0x00, 0x04,
  0xff, 0x3d, 0xe4, 0x0a, 0x13, 0xee, 0x1d, 0xd4, 0xcb, 0xbe, 0x42, 0xf6,
  0x18, 0xd3, 0x1f, 0x29, 0xf4, 0x12, 0xf8, 0xe8, 0xc1, 0xd6, 0xe7, 0xce,
  0xe7, 0x2d, 0x81, 0xf5, 0xfd, 0xf3, 0x10, 0xe9, 0x25, 0x1e, 0xf3, 0x0e,
  0xde, 0x4b, 0xf6, 0xf0, 0x31, 0xe2, 0xf3, 0x0e, 0xdc, 0x10, 0xf6, 0x0b,
  0x0c, 0xe7, 0x0b, 0x07, 0xd1, 0x02, 0x1b, 0x0c, 0xfb, 0x09, 0xe6, 0xd8,
  0x09, 0xcf, 0xe6, 0x09, 0x28, 0xf0, 0xcb, 0xf2, 0x0d, 0xf9, 0x23, 0x1c,
  0xdb, 0xec, 0xf7, 0xe5, 0xf9, 0x16, 0xf0, 0x1c, 0x03, 0xbe, 0x08, 0xf2,
  0x20, 0x29, 0x08, 0xff, 0x26, 0x19, 0xef, 0xdb, 0xd5, 0xea, 0x1c, 0xd4,
  0xd7, 0x3e, 0x11, 0x13, 0xe4, 0x0c, 0x18, 0x18, 0xd5, 0xfb, 0xf7, 0x2d,
  0xf9, 0xfe, 0x27, 0x09, 0x2a, 0xf3, 0x3d, 0x00, 0xef, 0x17, 0xe5, 0x0b,
  0x12, 0x24, 0xf7, 0x12, 0xd9, 0x58, 0xf3, 0xe4, 0xdf, 0xc1, 0xfa, 0x1e,
  0xe2, 0xdb, 0x21, 0xe1, 0xdb, 0xd8, 0xb3, 0xfb, 0x02, 0xff, 0xfd, 0xe2,
  0xf7, 0x22, 0xdf, 0xf3, 0xd1, 0x2a, 0x02, 0x0c, 0xe6, 0x13, 0x28, 0xef,
  0xfe, 0xe1, 0x31, 0x13, 0x0a, 0x06, 0x13, 0x26, 0xd9, 0xd7, 0xf4, 0x0b,
  0x12, 0xf5, 0xdc, 0x18, 0x2a, 0x13, 0x3f, 0x2f, 0xfe, 0xd3, 0x03, 0xdd,
  0x1c, 0xfa, 0xef, 0x1c, 0xf6, 0xc2, 0x38, 0x00, 0xdc, 0xd5, 0x23, 0x1f,
  0xe9, 0xfc, 0x00, 0xf3, 0xf2, 0xf9, 0x27, 0xd6, 0x0a, 0x0c, 0x2f, 0x2e,
  0xe6, 0x02, 0x11, 0xfb, 0x29, 0xd9, 0xe8, 0xf5, 0xcc, 0x0b, 0xf2, 0x05,
  0x00, 0xfc, 0xdb, 0xee, 0xf7, 0xbc, 0x17, 0x0b, 0xe4, 0xe2, 0xf7, 0xfc,
  0x03, 0x02, 0x2b, 0x22, 0xe7, 0x02, 0xd4, 0xf6, 0x09, 0xfb, 0xe6, 0xf6,
  0x0d, 0xdb, 0x17, 0x30, 0xf3, 0xd9, 0xde, 0x17, 0xf7, 0x01, 0x27, 0x0c,
  0xff, 0x18, 0xd3, 0x17, 0x2f, 0xed, 0xf0, 0x04, 0xeb, 0x1e, 0x46, 0xb8,
  0xfa, 0x29, 0xcb, 0x13, 0x03, 0xcf, 0xc6, 0xc9, 0xf9, 0xdc, 0x07, 0xe4,
  0x26, 0xb7, 0x07, 0xfd, 0x4c, 0xb6, 0x04, 0xf4, 0x0e, 0x8c, 0x16, 0x2a,
  0x17, 0xe6, 0x4c, 0x46, 0xe3, 0xc8, 0xdc, 0x20, 0xe6, 0x08, 0x7f, 0x39,
  0x46, 0x03, 0x1f, 0x19, 0xca, 0x35, 0x22, 0x2f, 0x36, 0x04, 0x9c, 0xd6,
  0x14, 0x0c, 0x94, 0xc0, 0x40, 0x00, 0xeb, 0xd4, 0x30, 0xcc, 0x4f, 0xdc,
  0x1b, 0xc5, 0x1d, 0x2e, 0xf7, 0xa1, 0x31, 0xd8, 0xd5, 0x21, 0xd4, 0x3b,
  0x1c, 0xc3, 0x01, 0xce, 0xf8, 0x33, 0xbe, 0xba, 0xeb, 0xfe, 0xfe, 0x46,
  0x0e, 0xbf, 0x11, 0x1f, 0xf0, 0xf5, 0x24, 0xae, 0xa0, 0x22, 0xd5, 0x27,
  0x15, 0xd8, 0xe8, 0xf9, 0xbb, 0xf9, 0xc6, 0xe1, 0xe6, 0x1a, 0x20, 0xcd,
  0xaa, 0x22, 0xea, 0x1c, 0x2c, 0xd8, 0x51, 0x08, 0xf2, 0x01, 0xf4, 0xed,
  0xb0, 0xee, 0x35, 0xe3, 0x0f, 0x28, 0x27, 0xed, 0x00, 0x01, 0x2d, 0xae,
  0x0a, 0xf0, 0xce, 0x0c, 0x33, 0x4b, 0x03, 0xea, 0xde, 0x4c, 0xce, 0x37,
  0x28, 0x37, 0xdb, 0xd1, 0xa5, 0x11, 0xd4, 0xff, 0xd9, 0x92, 0xe0, 0xd3,
  0xd7, 0x26, 0xd7, 0xce, 0x2d, 0xd5, 0xc9, 0xb1, 0x32, 0xcd, 0xf6, 0x2f,
  0x1f, 0x2b, 0xc3, 0xbd, 0x10, 0xd4, 0x2d, 0x04, 0x53, 0x40, 0xc0, 0xaf,
  0xfa, 0xe2, 0xaf, 0x0f, 0xf3, 0xcf, 0x16, 0xd8, 0x19, 0xf0, 0x4d, 0xd7,
  0xf6, 0xcc, 0xcb, 0xb9, 0xd9, 0x7b, 0x90, 0x36, 0xdd, 0x44, 0xbc, 0xeb,
  0x41, 0x62, 0x2e, 0xd2, 0x58, 0xf8, 0xe0, 0xaa, 0xda, 0xfa, 0x22, 0x29,
  0xd7, 0xef, 0x03, 0x0d, 0x1c, 0xf4, 0xd9, 0xb8, 0x3a, 0xdd, 0x1a, 0x1e,
  0x2e, 0xeb, 0xb0, 0xda, 0xfc, 0xd3, 0x05, 0x33, 0xc2, 0xfe, 0xff, 0xff,
  0x04, 0x00, 0x00, 0x00, 0x40, 0x00, 0x00, 0x00, 0xf1, 0xff, 0xff, 0xff,
  0x17, 0x00, 0x00, 0x00, 0x04, 0x00, 0x00, 0x00, 0xf9, 0xff, 0xff, 0xff,
  0xfb, 0xff, 0xff, 0xff, 0xf8, 0xff, 0xff, 0xff, 0x03, 0x00, 0x00, 0x00,
  0x02, 0x00, 0x00, 0x00, 0x06, 0x00, 0x00, 0x00, 0xeb, 0xff, 0xff, 0xff,
  0xfc, 0xff, 0xff, 0xff, 0x0c, 0x00, 0x00, 0x00, 0xed, 0xff, 0xff, 0xff,
  0x03, 0x00, 0x00, 0x00, 0xf9, 0xff, 0xff, 0xff, 0xe6, 0xff, 0xff, 0xff,
  0x0e, 0xff, 0xff, 0xff, 0x04, 0x00, 0x00, 0x00, 0x20, 0x00, 0x00, 0x00,
  0xf9, 0x81, 0x8a, 0x50, 0x34, 0x46, 0xf8, 0x82, 0xa5, 0x05, 0xa1, 0x97,
  0xa7, 0xea, 0x13, 0x48, 0xa4, 0xc2, 0xe9, 0x8f, 0xc3, 0xc6, 0x28, 0x6f,
  0xe2, 0xe4, 0xc7, 0x5f, 0x84, 0x58, 0x82, 0x3b, 0x3a, 0xff, 0xff, 0xff,
  0x04, 0x00, 0x00, 0x00, 0x08, 0x00, 0x00, 0x00, 0xfd, 0xff, 0xff, 0xff,
  0x03, 0x00, 0x00, 0x00, 0x4e, 0xff, 0xff, 0xff, 0x04, 0x00, 0x00, 0x00,
  0x08, 0x00, 0x00, 0x00, 0xff, 0xff, 0xff, 0xff, 0x10, 0x00, 0x00, 0x00,
  0x38, 0xed, 0xff, 0xff, 0x3c, 0xed, 0xff, 0xff, 0x0f, 0x00, 0x00, 0x00,
  0x4d, 0x4c, 0x49, 0x52, 0x20, 0x43, 0x6f, 0x6e, 0x76, 0x65, 0x72, 0x74,
  0x65, 0x64, 0x2e, 0x00, 0x01, 0x00, 0x00, 0x00, 0x14, 0x00, 0x00, 0x00,
  0x00, 0x00, 0x0e, 0x00, 0x18, 0x00, 0x14, 0x00, 0x10, 0x00, 0x0c, 0x00,
  0x08, 0x00, 0x04, 0x00, 0x0e, 0x00, 0x00, 0x00, 0x14, 0x00, 0x00, 0x00,
  0x1c, 0x00, 0x00, 0x00, 0xdc, 0x02, 0x00, 0x00, 0xe0, 0x02, 0x00, 0x00,
  0xe4, 0x02, 0x00, 0x00, 0x04, 0x00, 0x00, 0x00, 0x6d, 0x61, 0x69, 0x6e,
  0x00, 0x00, 0x00, 0x00, 0x0a, 0x00, 0x00, 0x00, 0x74, 0x02, 0x00, 0x00,
  0x10, 0x02, 0x00, 0x00, 0xbc, 0x01, 0x00, 0x00, 0x78, 0x01, 0x00, 0x00,
  0x34, 0x01, 0x00, 0x00, 0xf0, 0x00, 0x00, 0x00, 0xac, 0x00, 0x00, 0x00,
  0x84, 0x00, 0x00, 0x00, 0x40, 0x00, 0x00, 0x00, 0x04, 0x00, 0x00, 0x00,
  0x22, 0xfe, 0xff, 0xff, 0x1c, 0x00, 0x00, 0x00, 0x00, 0x00, 0x00, 0x09,
  0x1c, 0x00, 0x00, 0x00, 0x20, 0x00, 0x00, 0x00, 0x05, 0x00, 0x00, 0x00,
  0x00, 0x00, 0x06, 0x00, 0x08, 0x00, 0x04, 0x00, 0x06, 0x00, 0x00, 0x00,
  0x00, 0x00, 0x80, 0x3f, 0x01, 0x00, 0x00, 0x00, 0x13, 0x00, 0x00, 0x00,
  0x01, 0x00, 0x00, 0x00, 0x12, 0x00, 0x00, 0x00, 0x5a, 0xfe, 0xff, 0xff,
  0x14, 0x00, 0x00, 0x00, 0x00, 0x00, 0x00, 0x08, 0x10, 0x00, 0x00, 0x00,
  0x14, 0x00, 0x00, 0x00, 0x04, 0x00, 0x00, 0x00, 0x0c, 0xee, 0xff, 0xff,
  0x01, 0x00, 0x00, 0x00, 0x12, 0x00, 0x00, 0x00, 0x03, 0x00, 0x00, 0x00,
  0x11, 0x00, 0x00, 0x00, 0x03, 0x00, 0x00, 0x00, 0x02, 0x00, 0x00, 0x00,
  0x00, 0x00, 0x0a, 0x00, 0x10, 0x00, 0x0c, 0x00, 0x08, 0x00, 0x04, 0x00,
  0x0a, 0x00, 0x00, 0x00, 0x0c, 0x00, 0x00, 0x00, 0x10, 0x00, 0x00, 0x00,
  0x03, 0x00, 0x00, 0x00, 0x01, 0x00, 0x00, 0x00, 0x11, 0x00, 0x00, 0x00,
  0x02, 0x00, 0x00, 0x00, 0x10, 0x00, 0x00, 0x00, 0x01, 0x00, 0x00, 0x00,
  0xbe, 0xfe, 0xff, 0xff, 0x14, 0x00, 0x00, 0x00, 0x00, 0x00, 0x00, 0x05,
  0x24, 0x00, 0x00, 0x00, 0x28, 0x00, 0x00, 0x00, 0x02, 0x00, 0x00, 0x00,
  0xae, 0xfe, 0xff, 0xff, 0x29, 0x00, 0x00, 0x00, 0x03, 0x00, 0x00, 0x00,
  0x29, 0x00, 0x00, 0x00, 0x03, 0x00, 0x00, 0x00, 0x00, 0x00, 0x00, 0x01,
  0x01, 0x00, 0x00, 0x00, 0x10, 0x00, 0x00, 0x00, 0x01, 0x00, 0x00, 0x00,
  0x0f, 0x00, 0x00, 0x00, 0xfe, 0xfe, 0xff, 0xff, 0x14, 0x00, 0x00, 0x00,
  0x00, 0x00, 0x00, 0x05, 0x24, 0x00, 0x00, 0x00, 0x28, 0x00, 0x00, 0x00,
  0x01, 0x00, 0x00, 0x00, 0xee, 0xfe, 0xff, 0xff, 0x02, 0x00, 0x00, 0x00,
  0x02, 0x00, 0x00, 0x00, 0x02, 0x00, 0x00, 0x00, 0x02, 0x00, 0x00, 0x00,
  0x00, 0x00, 0x00, 0x01, 0x01, 0x00, 0x00, 0x00, 0x0f, 0x00, 0x00, 0x00,
  0x01, 0x00, 0x00, 0x00, 0x0e, 0x00, 0x00, 0x00, 0xde, 0xfe, 0xff, 0xff,
  0x10, 0x00, 0x00, 0x00, 0x00, 0x00, 0x00, 0x01, 0x1c, 0x00, 0x00, 0x00,
  0x20, 0x00, 0x00, 0x00, 0xd0, 0xfe, 0xff, 0xff, 0x00, 0x00, 0x00, 0x01,
  0x01, 0x00, 0x00, 0x00, 0x01, 0x00, 0x00, 0x00, 0x00, 0x00, 0x00, 0x01,
  0x01, 0x00, 0x00, 0x00, 0x0e, 0x00, 0x00, 0x00, 0x03, 0x00, 0x00, 0x00,
  0x0d, 0x00, 0x00, 0x00, 0x05, 0x00, 0x00, 0x00, 0x04, 0x00, 0x00, 0x00,
  0x7e, 0xff, 0xff, 0xff, 0x14, 0x00, 0x00, 0x00, 0x00, 0x00, 0x00, 0x05,
  0x24, 0x00, 0x00, 0x00, 0x28, 0x00, 0x00, 0x00, 0x01, 0x00, 0x00, 0x00,
  0x6e, 0xff, 0xff, 0xff, 0x02, 0x00, 0x00, 0x00, 0x01, 0x00, 0x00, 0x00,
  0x02, 0x00, 0x00, 0x00, 0x01, 0x00, 0x00, 0x00, 0x00, 0x00, 0x00, 0x01,
  0x01, 0x00, 0x00, 0x00, 0x0d, 0x00, 0x00, 0x00, 0x01, 0x00, 0x00, 0x00,
  0x0c, 0x00, 0x00, 0x00, 0x5e, 0xff, 0xff, 0xff, 0x10, 0x00, 0x00, 0x00,
  0x00, 0x00, 0x00, 0x01, 0x1c, 0x00, 0x00, 0x00, 0x20, 0x00, 0x00, 0x00,
  0x50, 0xff, 0xff, 0xff, 0x00, 0x00, 0x00, 0x01, 0x01, 0x00, 0x00, 0x00,
  0x01, 0x00, 0x00, 0x00, 0x00, 0x00, 0x00, 0x01, 0x01, 0x00, 0x00, 0x00,
  0x0c, 0x00, 0x00, 0x00, 0x03, 0x00, 0x00, 0x00, 0x0b, 0x00, 0x00, 0x00,
  0x07, 0x00, 0x00, 0x00, 0x06, 0x00, 0x00, 0x00, 0x00, 0x00, 0x0e, 0x00,
  0x1a, 0x00, 0x14, 0x00, 0x10, 0x00, 0x0c, 0x00, 0x0b, 0x00, 0x04, 0x00,
  0x0e, 0x00, 0x00, 0x00, 0x24, 0x00, 0x00, 0x00, 0x00, 0x00, 0x00, 0x05,
  0x34, 0x00, 0x00, 0x00, 0x38, 0x00, 0x00, 0x00, 0x01, 0x00, 0x00, 0x00,
  0x00, 0x00, 0x0e, 0x00, 0x18, 0x00, 0x17, 0x00, 0x10, 0x00, 0x0c, 0x00,
  0x08, 0x00, 0x04, 0x00, 0x0e, 0x00, 0x00, 0x00, 0x02, 0x00, 0x00, 0x00,
  0x01, 0x00, 0x00, 0x00, 0x02, 0x00, 0x00, 0x00, 0x01, 0x00, 0x00, 0x00,
  0x00, 0x00, 0x00, 0x01, 0x01, 0x00, 0x00, 0x00, 0x0b, 0x00, 0x00, 0x00,
  0x01, 0x00, 0x00, 0x00, 0x0a, 0x00, 0x00, 0x00, 0x00, 0x00, 0x0e, 0x00,
  0x14, 0x00, 0x00, 0x00, 0x10, 0x00, 0x0c, 0x00, 0x0b, 0x00, 0x04, 0x00,
  0x0e, 0x00, 0x00, 0x00, 0x1c, 0x00, 0x00, 0x00, 0x00, 0x00, 0x00, 0x01,
  0x28, 0x00, 0x00, 0x00, 0x2c, 0x00, 0x00, 0x00, 0x0c, 0x00, 0x14, 0x00,
  0x13, 0x00, 0x0c, 0x00, 0x08, 0x00, 0x07, 0x00, 0x0c, 0x00, 0x00, 0x00,
  0x00, 0x00, 0x00, 0x01, 0x01, 0x00, 0x00, 0x00, 0x01, 0x00, 0x00, 0x00,
  0x00, 0x00, 0x00, 0x01, 0x01, 0x00, 0x00, 0x00, 0x0a, 0x00, 0x00, 0x00,
  0x03, 0x00, 0x00, 0x00, 0x00, 0x00, 0x00, 0x00, 0x09, 0x00, 0x00, 0x00,
  0x08, 0x00, 0x00, 0x00, 0x01, 0x00, 0x00, 0x00, 0x13, 0x00, 0x00, 0x00,
  0x01, 0x00, 0x00, 0x00, 0x00, 0x00, 0x00, 0x00, 0x14, 0x00, 0x00, 0x00,
  0xe4, 0x0f, 0x00, 0x00, 0x78, 0x0f, 0x00, 0x00, 0xe0, 0x0e, 0x00, 0x00,
  0x6c, 0x0e, 0x00, 0x00, 0x38, 0x0d, 0x00, 0x00, 0x0c, 0x0c, 0x00, 0x00,
  0xd8, 0x0a, 0x00, 0x00, 0xac, 0x09, 0x00, 0x00, 0x78, 0x08, 0x00, 0x00,
  0x4c, 0x07, 0x00, 0x00, 0x30, 0x06, 0x00, 0x00, 0x94, 0x05, 0x00, 0x00,
  0x78, 0x04, 0x00, 0x00, 0xdc, 0x03, 0x00, 0x00, 0xe0, 0x02, 0x00, 0x00,
  0x44, 0x02, 0x00, 0x00, 0xa8, 0x01, 0x00, 0x00, 0x24, 0x01, 0x00, 0x00,
  0x80, 0x00, 0x00, 0x00, 0x04, 0x00, 0x00, 0x00, 0x82, 0xf0, 0xff, 0xff,
  0x00, 0x00, 0x00, 0x01, 0x18, 0x00, 0x00, 0x00, 0x20, 0x00, 0x00, 0x00,
  0x3c, 0x00, 0x00, 0x00, 0x14, 0x00, 0x00, 0x00, 0x00, 0x00, 0x00, 0x09,
  0x50, 0x00, 0x00, 0x00, 0x02, 0x00, 0x00, 0x00, 0xff, 0xff, 0xff, 0xff,
  0x02, 0x00, 0x00, 0x00, 0x64, 0xf0, 0xff, 0xff, 0x08, 0x00, 0x00, 0x00,
  0x10, 0x00, 0x00, 0x00, 0x01, 0x00, 0x00, 0x00, 0x80, 0xff, 0xff, 0xff,
  0xff, 0xff, 0xff, 0xff, 0x01, 0x00, 0x00, 0x00, 0x00, 0x00, 0x80, 0x3b,
  0x19, 0x00, 0x00, 0x00, 0x53, 0x74, 0x61, 0x74, 0x65, 0x66, 0x75, 0x6c,
  0x50, 0x61, 0x72, 0x74, 0x69, 0x74, 0x69, 0x6f, 0x6e, 0x65, 0x64, 0x43,
  0x61, 0x6c, 0x6c, 0x3a, 0x30, 0x00, 0x00, 0x00, 0x02, 0x00, 0x00, 0x00,
  0x01, 0x00, 0x00, 0x00, 0x02, 0x00, 0x00, 0x00, 0xfa, 0xf0, 0xff, 0xff,
  0x00, 0x00, 0x00, 0x01, 0x18, 0x00, 0x00, 0x00, 0x20, 0x00, 0x00, 0x00,
  0x40, 0x00, 0x00, 0x00, 0x13, 0x00, 0x00, 0x00, 0x00, 0x00, 0x00, 0x09,
  0x78, 0x00, 0x00, 0x00, 0x02, 0x00, 0x00, 0x00, 0xff, 0xff, 0xff, 0xff,
  0x02, 0x00, 0x00, 0x00, 0xdc, 0xf0, 0xff, 0xff, 0x08, 0x00, 0x00, 0x00,
  0x14, 0x00, 0x00, 0x00, 0x01, 0x00, 0x00, 0x00, 0x7f, 0x00, 0x00, 0x00,
  0x00, 0x00, 0x00, 0x00, 0x00, 0x00, 0x00, 0x00, 0x01, 0x00, 0x00, 0x00,
  0x89, 0x8a, 0x02, 0x3e, 0x3c, 0x00, 0x00, 0x00, 0x73, 0x65, 0x71, 0x75,
  0x65, 0x6e, 0x74, 0x69, 0x61, 0x6c, 0x5f, 0x31, 0x30, 0x2f, 0x64, 0x65,
  0x6e, 0x73, 0x65, 0x5f, 0x31, 0x33, 0x2f, 0x4d, 0x61, 0x74, 0x4d, 0x75,
  0x6c, 0x3b, 0x73, 0x65, 0x71, 0x75, 0x65, 0x6e, 0x74, 0x69, 0x61, 0x6c,
  0x5f, 0x31, 0x30, 0x2f, 0x64, 0x65, 0x6e, 0x73, 0x65, 0x5f, 0x31, 0x33,
  0x2f, 0x42, 0x69, 0x61, 0x73, 0x41, 0x64, 0x64, 0x00, 0x00, 0x00, 0x00,
  0x02, 0x00, 0x00, 0x00, 0x01, 0x00, 0x00, 0x00, 0x02, 0x00, 0x00, 0x00,
  0x9a, 0xf1, 0xff, 0xff, 0x00, 0x00, 0x00, 0x01, 0x18, 0x00, 0x00, 0x00,
  0x20, 0x00, 0x00, 0x00, 0x3c, 0x00, 0x00, 0x00, 0x12, 0x00, 0x00, 0x00,
  0x00, 0x00, 0x00, 0x09, 0x58, 0x00, 0x00, 0x00, 0x02, 0x00, 0x00, 0x00,
  0xff, 0xff, 0xff, 0xff, 0x10, 0x00, 0x00, 0x00, 0x7c, 0xf1, 0xff, 0xff,
  0x08, 0x00, 0x00, 0x00, 0x10, 0x00, 0x00, 0x00, 0x01, 0x00, 0x00, 0x00,
  0x80, 0xff, 0xff, 0xff, 0xff, 0xff, 0xff, 0xff, 0x01, 0x00, 0x00, 0x00,
  0x88, 0x31, 0xd4, 0x3e, 0x20, 0x00, 0x00, 0x00, 0x73, 0x65, 0x71, 0x75,
  0x65, 0x6e, 0x74, 0x69, 0x61, 0x6c, 0x5f, 0x31, 0x30, 0x2f, 0x66, 0x6c,
  0x61, 0x74, 0x74, 0x65, 0x6e, 0x5f, 0x31, 0x30, 0x2f, 0x52, 0x65, 0x73,
  0x68, 0x61, 0x70, 0x65, 0x00, 0x00, 0x00, 0x00, 0x02, 0x00, 0x00, 0x00,
  0x01, 0x00, 0x00, 0x00, 0x10, 0x00, 0x00, 0x00, 0x1a, 0xf2, 0xff, 0xff,
  0x00, 0x00, 0x00, 0x01, 0x18, 0x00, 0x00, 0x00, 0x28, 0x00, 0x00, 0x00,
  0x44, 0x00, 0x00, 0x00, 0x11, 0x00, 0x00, 0x00, 0x00, 0x00, 0x00, 0x09,
  0x68, 0x00, 0x00, 0x00, 0x04, 0x00, 0x00, 0x00, 0xff, 0xff, 0xff, 0xff,
  0x01, 0x00, 0x00, 0x00, 0x01, 0x00, 0x00, 0x00, 0x10, 0x00, 0x00, 0x00,
  0x04, 0xf2, 0xff, 0xff, 0x08, 0x00, 0x00, 0x00, 0x10, 0x00, 0x00, 0x00,
  0x01, 0x00, 0x00, 0x00, 0x80, 0xff, 0xff, 0xff, 0xff, 0xff, 0xff, 0xff,
  0x01, 0x00, 0x00, 0x00, 0x88, 0x31, 0xd4, 0x3e, 0x2a, 0x00, 0x00, 0x00,
  0x73, 0x65, 0x71, 0x75, 0x65, 0x6e, 0x74, 0x69, 0x61, 0x6c, 0x5f, 0x31,
  0x30, 0x2f, 0x61, 0x76, 0x65, 0x72, 0x61, 0x67, 0x65, 0x5f, 0x70, 0x6f,
  0x6f, 0x6c, 0x69, 0x6e, 0x67, 0x32, 0x64, 0x5f, 0x31, 0x30, 0x2f, 0x41,
  0x76, 0x67, 0x50, 0x6f, 0x6f, 0x6c, 0x00, 0x00, 0x04, 0x00, 0x00, 0x00,
  0x01, 0x00, 0x00, 0x00, 0x01, 0x00, 0x00, 0x00, 0x01, 0x00, 0x00, 0x00,
  0x10, 0x00, 0x00, 0x00, 0xb2, 0xf2, 0xff, 0xff, 0x00, 0x00, 0x00, 0x01,
  0x18, 0x00, 0x00, 0x00, 0x28, 0x00, 0x00, 0x00, 0x48, 0x00, 0x00, 0x00,
  0x10, 0x00, 0x00, 0x00, 0x00, 0x00, 0x00, 0x09, 0x68, 0x00, 0x00, 0x00,
  0x04, 0x00, 0x00, 0x00, 0xff, 0xff, 0xff, 0xff, 0x29, 0x00, 0x00, 0x00,
  0x03, 0x00, 0x00, 0x00, 0x10, 0x00, 0x00, 0x00, 0x9c, 0xf2, 0xff, 0xff,
  0x08, 0x00, 0x00, 0x00, 0x14, 0x00, 0x00, 0x00, 0x01, 0x00, 0x00, 0x00,
  0x80, 0xff, 0xff, 0xff, 0xff, 0xff, 0xff, 0xff, 0x00, 0x00, 0x00, 0x00,
  0x01, 0x00, 0x00, 0x00, 0x88, 0x31, 0xd4, 0x3e, 0x26, 0x00, 0x00, 0x00,
  0x73, 0x65, 0x71, 0x75, 0x65, 0x6e, 0x74, 0x69, 0x61, 0x6c, 0x5f, 0x31,
  0x30, 0x2f, 0x6d, 0x61, 0x78, 0x5f, 0x70, 0x6f, 0x6f, 0x6c, 0x69, 0x6e,
  0x67, 0x32, 0x64, 0x5f, 0x32, 0x39, 0x2f, 0x4d, 0x61, 0x78, 0x50, 0x6f,
  0x6f, 0x6c, 0x00, 0x00, 0x04, 0x00, 0x00, 0x00, 0x01, 0x00, 0x00, 0x00,
  0x29, 0x00, 0x00, 0x00, 0x03, 0x00, 0x00, 0x00, 0x10, 0x00, 0x00, 0x00,
  0x4a, 0xf3, 0xff, 0xff, 0x00, 0x00, 0x00, 0x01, 0x18, 0x00, 0x00, 0x00,
  0x28, 0x00, 0x00, 0x00, 0x44, 0x00, 0x00, 0x00, 0x0f, 0x00, 0x00, 0x00,
  0x00, 0x00, 0x00, 0x09, 0xc8, 0x00, 0x00, 0x00, 0x04, 0x00, 0x00, 0x00,
  0xff, 0xff, 0xff, 0xff, 0x52, 0x00, 0x00, 0x00, 0x06, 0x00, 0x00, 0x00,
  0x10, 0x00, 0x00, 0x00, 0x34, 0xf3, 0xff, 0xff, 0x08, 0x00, 0x00, 0x00,
  0x10, 0x00, 0x00, 0x00, 0x01, 0x00, 0x00, 0x00, 0x80, 0xff, 0xff, 0xff,
  0xff, 0xff, 0xff, 0xff, 0x01, 0x00, 0x00, 0x00, 0x88, 0x31, 0xd4, 0x3e,
  0x8a, 0x00, 0x00, 0x00, 0x73, 0x65, 0x71, 0x75, 0x65, 0x6e, 0x74, 0x69,
  0x61, 0x6c, 0x5f, 0x31, 0x30, 0x2f, 0x63, 0x6f, 0x6e, 0x76, 0x32, 0x64,
  0x5f, 0x32, 0x39, 0x2f, 0x52, 0x65, 0x6c, 0x75, 0x3b, 0x73, 0x65, 0x71,
  0x75, 0x65, 0x6e, 0x74, 0x69, 0x61, 0x6c, 0x5f, 0x31, 0x30, 0x2f, 0x63,
  0x6f, 0x6e, 0x76, 0x32, 0x64, 0x5f, 0x32, 0x39, 0x2f, 0x42, 0x69, 0x61,
  0x73, 0x41, 0x64, 0x64, 0x3b, 0x73, 0x65, 0x71, 0x75, 0x65, 0x6e, 0x74,
  0x69, 0x61, 0x6c, 0x5f, 0x31, 0x30, 0x2f, 0x63, 0x6f, 0x6e, 0x76, 0x32,
  0x64, 0x5f, 0x32, 0x39, 0x2f, 0x43, 0x6f, 0x6e, 0x76, 0x32, 0x44, 0x3b,
  0x73, 0x65, 0x71, 0x75, 0x65, 0x6e, 0x74, 0x69, 0x61, 0x6c, 0x5f, 0x31,
  0x30, 0x2f, 0x63, 0x6f, 0x6e, 0x76, 0x32, 0x64, 0x5f, 0x32, 0x39, 0x2f,
  0x42, 0x69, 0x61, 0x73, 0x41, 0x64, 0x64, 0x2f, 0x52, 0x65, 0x61, 0x64,
  0x56, 0x61, 0x72, 0x69, 0x61, 0x62, 0x6c, 0x65, 0x4f, 0x70, 0x00, 0x00,
  0x04, 0x00, 0x00, 0x00, 0x01, 0x00, 0x00, 0x00, 0x52, 0x00, 0x00, 0x00,
  0x06, 0x00, 0x00, 0x00, 0x10, 0x00, 0x00, 0x00, 0x42, 0xf4, 0xff, 0xff,
  0x00, 0x00, 0x00, 0x01, 0x18, 0x00, 0x00, 0x00, 0x28, 0x00, 0x00, 0x00,
  0x48, 0x00, 0x00, 0x00, 0x0e, 0x00, 0x00, 0x00, 0x00, 0x00, 0x00, 0x09,
  0x68, 0x00, 0x00, 0x00, 0x04, 0x00, 0x00, 0x00, 0xff, 0xff, 0xff, 0xff,
  0x56, 0x00, 0x00, 0x00, 0x08, 0x00, 0x00, 0x00, 0x10, 0x00, 0x00, 0x00,
  0x2c, 0xf4, 0xff, 0xff, 0x08, 0x00, 0x00, 0x00, 0x14, 0x00, 0x00, 0x00,
  0x01, 0x00, 0x00, 0x00, 0x80, 0xff, 0xff, 0xff, 0xff, 0xff, 0xff, 0xff,
  0x00, 0x00, 0x00, 0x00, 0x01, 0x00, 0x00, 0x00, 0x9d, 0x0f, 0xfc, 0x3e,
  0x26, 0x00, 0x00, 0x00, 0x73, 0x65, 0x71, 0x75, 0x65, 0x6e, 0x74, 0x69,
  0x61, 0x6c, 0x5f, 0x31, 0x30, 0x2f, 0x6d, 0x61, 0x78, 0x5f, 0x70, 0x6f,
  0x6f, 0x6c, 0x69, 0x6e, 0x67, 0x32, 0x64, 0x5f, 0x32, 0x38, 0x2f, 0x4d,
  0x61, 0x78, 0x50, 0x6f, 0x6f, 0x6c, 0x00, 0x00, 0x04, 0x00, 0x00, 0x00,
  0x01, 0x00, 0x00, 0x00, 0x56, 0x00, 0x00, 0x00, 0x08, 0x00, 0x00, 0x00,
  0x10, 0x00, 0x00, 0x00, 0xda, 0xf4, 0xff, 0xff, 0x00, 0x00, 0x00, 0x01,
  0x18, 0x00, 0x00, 0x00, 0x28, 0x00, 0x00, 0x00, 0x44, 0x00, 0x00, 0x00,
  0x0d, 0x00, 0x00, 0x00, 0x00, 0x00, 0x00, 0x09, 0xe8, 0x00, 0x00, 0x00,
  0x04, 0x00, 0x00, 0x00, 0xff, 0xff, 0xff, 0xff, 0xac, 0x00, 0x00, 0x00,
  0x08, 0x00, 0x00, 0x00, 0x10, 0x00, 0x00, 0x00, 0xc4, 0xf4, 0xff, 0xff,
  0x08, 0x00, 0x00, 0x00, 0x10, 0x00, 0x00, 0x00, 0x01, 0x00, 0x00, 0x00,
  0x80, 0xff, 0xff, 0xff, 0xff, 0xff, 0xff, 0xff, 0x01, 0x00, 0x00, 0x00,
  0x9d, 0x0f, 0xfc, 0x3e, 0xa9, 0x00, 0x00, 0x00, 0x73, 0x65, 0x71, 0x75,
  0x65, 0x6e, 0x74, 0x69, 0x61, 0x6c, 0x5f, 0x31, 0x30, 0x2f, 0x63, 0x6f,
  0x6e, 0x76, 0x32, 0x64, 0x5f, 0x32, 0x38, 0x2f, 0x52, 0x65, 0x6c, 0x75,
  0x3b, 0x73, 0x65, 0x71, 0x75, 0x65, 0x6e, 0x74, 0x69, 0x61, 0x6c, 0x5f,
  0x31, 0x30, 0x2f, 0x63, 0x6f, 0x6e, 0x76, 0x32, 0x64, 0x5f, 0x32, 0x38,
  0x2f, 0x42, 0x69, 0x61, 0x73, 0x41, 0x64, 0x64, 0x3b, 0x73, 0x65, 0x71,
  0x75, 0x65, 0x6e, 0x74, 0x69, 0x61, 0x6c, 0x5f, 0x31, 0x30, 0x2f, 0x63,
  0x6f, 0x6e, 0x76, 0x32, 0x64, 0x5f, 0x32, 0x39, 0x2f, 0x43, 0x6f, 0x6e,
  0x76, 0x32, 0x44, 0x3b, 0x73, 0x65, 0x71, 0x75, 0x65, 0x6e, 0x74, 0x69,
  0x61, 0x6c, 0x5f, 0x31, 0x30, 0x2f, 0x63, 0x6f, 0x6e, 0x76, 0x32, 0x64,
  0x5f, 0x32, 0x38, 0x2f, 0x43, 0x6f, 0x6e, 0x76, 0x32, 0x44, 0x3b, 0x73,
  0x65, 0x71, 0x75, 0x65, 0x6e, 0x74, 0x69, 0x61, 0x6c, 0x5f, 0x31, 0x30,
  0x2f, 0x63, 0x6f, 0x6e, 0x76, 0x32, 0x64, 0x5f, 0x32, 0x38, 0x2f, 0x42,
  0x69, 0x61, 0x73, 0x41, 0x64, 0x64, 0x2f, 0x52, 0x65, 0x61, 0x64, 0x56,
  0x61, 0x72, 0x69, 0x61, 0x62, 0x6c, 0x65, 0x4f, 0x70, 0x00, 0x00, 0x00,
  0x04, 0x00, 0x00, 0x00, 0x01, 0x00, 0x00, 0x00, 0xac, 0x00, 0x00, 0x00,
  0x08, 0x00, 0x00, 0x00, 0x10, 0x00, 0x00, 0x00, 0xf2, 0xf5, 0xff, 0xff,
  0x00, 0x00, 0x00, 0x01, 0x18, 0x00, 0x00, 0x00, 0x28, 0x00, 0x00, 0x00,
  0x48, 0x00, 0x00, 0x00, 0x0c, 0x00, 0x00, 0x00, 0x00, 0x00, 0x00, 0x09,
  0x68, 0x00, 0x00, 0x00, 0x04, 0x00, 0x00, 0x00, 0xff, 0xff, 0xff, 0xff,
  0xac, 0x00, 0x00, 0x00, 0x0c, 0x00, 0x00, 0x00, 0x10, 0x00, 0x00, 0x00,
  0xdc, 0xf5, 0xff, 0xff, 0x08, 0x00, 0x00, 0x00, 0x14, 0x00, 0x00, 0x00,
  0x01, 0x00, 0x00, 0x00, 0x80, 0xff, 0xff, 0xff, 0xff, 0xff, 0xff, 0xff,
  0x00, 0x00, 0x00, 0x00, 0x01, 0x00, 0x00, 0x00, 0x57, 0x54, 0x1d, 0x3f,
  0x26, 0x00, 0x00, 0x00, 0x73, 0x65, 0x71, 0x75, 0x65, 0x6e, 0x74, 0x69,
  0x61, 0x6c, 0x5f, 0x31, 0x30, 0x2f, 0x6d, 0x61, 0x78, 0x5f, 0x70, 0x6f,
  0x6f, 0x6c, 0x69, 0x6e, 0x67, 0x32, 0x64, 0x5f, 0x32, 0x37, 0x2f, 0x4d,
  0x61, 0x78, 0x50, 0x6f, 0x6f, 0x6c, 0x00, 0x00, 0x04, 0x00, 0x00, 0x00,
  0x01, 0x00, 0x00, 0x00, 0xac, 0x00, 0x00, 0x00, 0x0c, 0x00, 0x00, 0x00,
  0x10, 0x00, 0x00, 0x00, 0x8a, 0xf6, 0xff, 0xff, 0x00, 0x00, 0x00, 0x01,
  0x18, 0x00, 0x00, 0x00, 0x28, 0x00, 0x00, 0x00, 0x44, 0x00, 0x00, 0x00,
  0x0b, 0x00, 0x00, 0x00, 0x00, 0x00, 0x00, 0x09, 0xe8, 0x00, 0x00, 0x00,
  0x04, 0x00, 0x00, 0x00, 0xff, 0xff, 0xff, 0xff, 0x59, 0x01, 0x00, 0x00,
  0x0c, 0x00, 0x00, 0x00, 0x10, 0x00, 0x00, 0x00, 0x74, 0xf6, 0xff, 0xff,
  0x08, 0x00, 0x00, 0x00, 0x10, 0x00, 0x00, 0x00, 0x01, 0x00, 0x00, 0x00,
  0x80, 0xff, 0xff, 0xff, 0xff, 0xff, 0xff, 0xff, 0x01, 0x00, 0x00, 0x00,
  0x57, 0x54, 0x1d, 0x3f, 0xa9, 0x00, 0x00, 0x00, 0x73, 0x65, 0x71, 0x75,
  0x65, 0x6e, 0x74, 0x69, 0x61, 0x6c, 0x5f, 0x31, 0x30, 0x2f, 0x63, 0x6f,
  0x6e, 0x76, 0x32, 0x64, 0x5f, 0x32, 0x37, 0x2f, 0x52, 0x65, 0x6c, 0x75,
  0x3b, 0x73, 0x65, 0x71, 0x75, 0x65, 0x6e, 0x74, 0x69, 0x61, 0x6c, 0x5f,
  0x31, 0x30, 0x2f, 0x63, 0x6f, 0x6e, 0x76, 0x32, 0x64, 0x5f, 0x32, 0x37,
  0x2f, 0x42, 0x69, 0x61, 0x73, 0x41, 0x64, 0x64, 0x3b, 0x73, 0x65, 0x71,
  0x75, 0x65, 0x6e, 0x74, 0x69, 0x61, 0x6c, 0x5f, 0x31, 0x30, 0x2f, 0x63,
  0x6f, 0x6e, 0x76, 0x32, 0x64, 0x5f, 0x32, 0x39, 0x2f, 0x43, 0x6f, 0x6e,
  0x76, 0x32, 0x44, 0x3b, 0x73, 0x65, 0x71, 0x75, 0x65, 0x6e, 0x74, 0x69,
  0x61, 0x6c, 0x5f, 0x31, 0x30, 0x2f, 0x63, 0x6f, 0x6e, 0x76, 0x32, 0x64,
  0x5f, 0x32, 0x37, 0x2f, 0x43, 0x6f, 0x6e, 0x76, 0x32, 0x44, 0x3b, 0x73,
  0x65, 0x71, 0x75, 0x65, 0x6e, 0x74, 0x69, 0x61, 0x6c, 0x5f, 0x31, 0x30,
  0x2f, 0x63, 0x6f, 0x6e, 0x76, 0x32, 0x64, 0x5f, 0x32, 0x37, 0x2f, 0x42,
  0x69, 0x61, 0x73, 0x41, 0x64, 0x64, 0x2f, 0x52, 0x65, 0x61, 0x64, 0x56,
  0x61, 0x72, 0x69, 0x61, 0x62, 0x6c, 0x65, 0x4f, 0x70, 0x00, 0x00, 0x00,
  0x04, 0x00, 0x00, 0x00, 0x01, 0x00, 0x00, 0x00, 0x59, 0x01, 0x00, 0x00,
  0x0c, 0x00, 0x00, 0x00, 0x10, 0x00, 0x00, 0x00, 0x0a, 0xf8, 0xff, 0xff,
  0x00, 0x00, 0x00, 0x01, 0x14, 0x00, 0x00, 0x00, 0xe4, 0x00, 0x00, 0x00,
  0x0a, 0x00, 0x00, 0x00, 0x00, 0x00, 0x00, 0x09, 0xfc, 0x00, 0x00, 0x00,
  0x74, 0xf7, 0xff, 0xff, 0x08, 0x00, 0x00, 0x00, 0x88, 0x00, 0x00, 0x00,
  0x10, 0x00, 0x00, 0x00, 0x00, 0x00, 0x00, 0x00, 0x00, 0x00, 0x00, 0x00,
  0x00, 0x00, 0x00, 0x00, 0x00, 0x00, 0x00, 0x00, 0x00, 0x00, 0x00, 0x00,
  0x00, 0x00, 0x00, 0x00, 0x00, 0x00, 0x00, 0x00, 0x00, 0x00, 0x00, 0x00,
  0x00, 0x00, 0x00, 0x00, 0x00, 0x00, 0x00, 0x00, 0x00, 0x00, 0x00, 0x00,
  0x00, 0x00, 0x00, 0x00, 0x00, 0x00, 0x00, 0x00, 0x00, 0x00, 0x00, 0x00,
  0x00, 0x00, 0x00, 0x00, 0x00, 0x00, 0x00, 0x00, 0x00, 0x00, 0x00, 0x00,
  0x00, 0x00, 0x00, 0x00, 0x00, 0x00, 0x00, 0x00, 0x00, 0x00, 0x00, 0x00,
  0x00, 0x00, 0x00, 0x00, 0x00, 0x00, 0x00, 0x00, 0x00, 0x00, 0x00, 0x00,
  0x00, 0x00, 0x00, 0x00, 0x00, 0x00, 0x00, 0x00, 0x00, 0x00, 0x00, 0x00,
  0x00, 0x00, 0x00, 0x00, 0x00, 0x00, 0x00, 0x00, 0x00, 0x00, 0x00, 0x00,
  0x00, 0x00, 0x00, 0x00, 0x00, 0x00, 0x00, 0x00, 0x00, 0x00, 0x00, 0x00,
  0x10, 0x00, 0x00, 0x00, 0xb2, 0x95, 0x03, 0x3b, 0xdd, 0x4a, 0xe4, 0x3a,
  0x66, 0x92, 0xc9, 0x3a, 0x8e, 0xa3, 0xaa, 0x3a, 0xf3, 0x85, 0x19, 0x3b,
  0xf1, 0x87, 0x6f, 0x3a, 0x93, 0x98, 0x94, 0x3a, 0xfe, 0xec, 0x22, 0x3b,
  0x04, 0xd8, 0xf8, 0x3a, 0xb1, 0xbb, 0xd9, 0x3a, 0x60, 0xf3, 0x17, 0x3b,
  0x00, 0x50, 0x09, 0x3b, 0x74, 0xee, 0x09, 0x3b, 0x41, 0x95, 0x27, 0x3b,
  0xf9, 0xec, 0x16, 0x3b, 0xb8, 0xf9, 0x2b, 0x3b, 0x1e, 0x00, 0x00, 0x00,
  0x73, 0x65, 0x71, 0x75, 0x65, 0x6e, 0x74, 0x69, 0x61, 0x6c, 0x5f, 0x31,
  0x30, 0x2f, 0x63, 0x6f, 0x6e, 0x76, 0x32, 0x64, 0x5f, 0x32, 0x37, 0x2f,
  0x43, 0x6f, 0x6e, 0x76, 0x32, 0x44, 0x00, 0x00, 0x04, 0x00, 0x00, 0x00,
  0x10, 0x00, 0x00, 0x00, 0x05, 0x00, 0x00, 0x00, 0x01, 0x00, 0x00, 0x00,
  0x01, 0x00, 0x00, 0x00, 0x32, 0xf9, 0xff, 0xff, 0x00, 0x00, 0x00, 0x01,
  0x14, 0x00, 0x00, 0x00, 0xe8, 0x00, 0x00, 0x00, 0x09, 0x00, 0x00, 0x00,
  0x00, 0x00, 0x00, 0x02, 0x10, 0x01, 0x00, 0x00, 0x9c, 0xf8, 0xff, 0xff,
  0x08, 0x00, 0x00, 0x00, 0x8c, 0x00, 0x00, 0x00, 0x10, 0x00, 0x00, 0x00,
  0x00, 0x00, 0x00, 0x00, 0x00, 0x00, 0x00, 0x00, 0x00, 0x00, 0x00, 0x00,
  0x00, 0x00, 0x00, 0x00, 0x00, 0x00, 0x00, 0x00, 0x00, 0x00, 0x00, 0x00,
  0x00, 0x00, 0x00, 0x00, 0x00, 0x00, 0x00, 0x00, 0x00, 0x00, 0x00, 0x00,
  0x00, 0x00, 0x00, 0x00, 0x00, 0x00, 0x00, 0x00, 0x00, 0x00, 0x00, 0x00,
  0x00, 0x00, 0x00, 0x00, 0x00, 0x00, 0x00, 0x00, 0x00, 0x00, 0x00, 0x00,
  0x00, 0x00, 0x00, 0x00, 0x00, 0x00, 0x00, 0x00, 0x00, 0x00, 0x00, 0x00,
  0x00, 0x00, 0x00, 0x00, 0x00, 0x00, 0x00, 0x00, 0x00, 0x00, 0x00, 0x00,
  0x00, 0x00, 0x00, 0x00, 0x00, 0x00, 0x00, 0x00, 0x00, 0x00, 0x00, 0x00,
  0x00, 0x00, 0x00, 0x00, 0x00, 0x00, 0x00, 0x00, 0x00, 0x00, 0x00, 0x00,
  0x00, 0x00, 0x00, 0x00, 0x00, 0x00, 0x00, 0x00, 0x00, 0x00, 0x00, 0x00,
  0x00, 0x00, 0x00, 0x00, 0x00, 0x00, 0x00, 0x00, 0x00, 0x00, 0x00, 0x00,
  0x10, 0x00, 0x00, 0x00, 0xb2, 0x95, 0x03, 0x3b, 0xdd, 0x4a, 0xe4, 0x3a,
  0x66, 0x92, 0xc9, 0x3a, 0x8e, 0xa3, 0xaa, 0x3a, 0xf3, 0x85, 0x19, 0x3b,
  0xf1, 0x87, 0x6f, 0x3a, 0x93, 0x98, 0x94, 0x3a, 0xfe, 0xec, 0x22, 0x3b,
  0x04, 0xd8, 0xf8, 0x3a, 0xb1, 0xbb, 0xd9, 0x3a, 0x60, 0xf3, 0x17, 0x3b,
  0x00, 0x50, 0x09, 0x3b, 0x74, 0xee, 0x09, 0x3b, 0x41, 0x95, 0x27, 0x3b,
  0xf9, 0xec, 0x16, 0x3b, 0xb8, 0xf9, 0x2b, 0x3b, 0x2e, 0x00, 0x00, 0x00,
  0x73, 0x65, 0x71, 0x75, 0x65, 0x6e, 0x74, 0x69, 0x61, 0x6c, 0x5f, 0x31,
  0x30, 0x2f, 0x63, 0x6f, 0x6e, 0x76, 0x32, 0x64, 0x5f, 0x32, 0x37, 0x2f,
  0x42, 0x69, 0x61, 0x73, 0x41, 0x64, 0x64, 0x2f, 0x52, 0x65, 0x61, 0x64,
  0x56, 0x61, 0x72, 0x69, 0x61, 0x62, 0x6c, 0x65, 0x4f, 0x70, 0x00, 0x00,
  0x01, 0x00, 0x00, 0x00, 0x10, 0x00, 0x00, 0x00, 0x62, 0xfa, 0xff, 0xff,
  0x00, 0x00, 0x00, 0x01, 0x14, 0x00, 0x00, 0x00, 0xe4, 0x00, 0x00, 0x00,
  0x08, 0x00, 0x00, 0x00, 0x00, 0x00, 0x00, 0x09, 0xfc, 0x00, 0x00, 0x00,
  0xcc, 0xf9, 0xff, 0xff, 0x08, 0x00, 0x00, 0x00, 0x88, 0x00, 0x00, 0x00,
  0x10, 0x00, 0x00, 0x00, 0x00, 0x00, 0x00, 0x00, 0x00, 0x00, 0x00, 0x00,
  0x00, 0x00, 0x00, 0x00, 0x00, 0x00, 0x00, 0x00, 0x00, 0x00, 0x00, 0x00,
  0x00, 0x00, 0x00, 0x00, 0x00, 0x00, 0x00, 0x00, 0x00, 0x00, 0x00, 0x00,
  0x00, 0x00, 0x00, 0x00, 0x00, 0x00, 0x00, 0x00, 0x00, 0x00, 0x00, 0x00,
  0x00, 0x00, 0x00, 0x00, 0x00, 0x00, 0x00, 0x00, 0x00, 0x00, 0x00, 0x00,
  0x00, 0x00, 0x00, 0x00, 0x00, 0x00, 0x00, 0x00, 0x00, 0x00, 0x00, 0x00,
  0x00, 0x00, 0x00, 0x00, 0x00, 0x00, 0x00, 0x00, 0x00, 0x00, 0x00, 0x00,
  0x00, 0x00, 0x00, 0x00, 0x00, 0x00, 0x00, 0x00, 0x00, 0x00, 0x00, 0x00,
  0x00, 0x00, 0x00, 0x00, 0x00, 0x00, 0x00, 0x00, 0x00, 0x00, 0x00, 0x00,
  0x00, 0x00, 0x00, 0x00, 0x00, 0x00, 0x00, 0x00, 0x00, 0x00, 0x00, 0x00,
  0x00, 0x00, 0x00, 0x00, 0x00, 0x00, 0x00, 0x00, 0x00, 0x00, 0x00, 0x00,
  0x10, 0x00, 0x00, 0x00, 0x36, 0x89, 0x20, 0x3b, 0x54, 0x78, 0x21, 0x3b,
  0xc5, 0xc9, 0x11, 0x3b, 0x9a, 0xef, 0xd6, 0x3a, 0x1d, 0x85, 0x08, 0x3b,
  0x74, 0x29, 0x97, 0x3b, 0xdb, 0x0d, 0x37, 0x3b, 0xa7, 0x10, 0x02, 0x3b,
  0xda, 0x6c, 0xe8, 0x3a, 0x21, 0xba, 0x02, 0x3b, 0xc6, 0x56, 0x11, 0x3b,
  0x1d, 0x46, 0x28, 0x3b, 0x3d, 0x87, 0xdf, 0x3a, 0xaa, 0xde, 0x39, 0x3b,
  0xca, 0xa4, 0x06, 0x3b, 0x94, 0x9e, 0xf9, 0x3a, 0x1e, 0x00, 0x00, 0x00,
  0x73, 0x65, 0x71, 0x75, 0x65, 0x6e, 0x74, 0x69, 0x61, 0x6c, 0x5f, 0x31,
  0x30, 0x2f, 0x63, 0x6f, 0x6e, 0x76, 0x32, 0x64, 0x5f, 0x32, 0x38, 0x2f,
  0x43, 0x6f, 0x6e, 0x76, 0x32, 0x44, 0x00, 0x00, 0x04, 0x00, 0x00, 0x00,
  0x10, 0x00, 0x00, 0x00, 0x01, 0x00, 0x00, 0x00, 0x05, 0x00, 0x00, 0x00,
  0x10, 0x00, 0x00, 0x00, 0x8a, 0xfb, 0xff, 0xff, 0x00, 0x00, 0x00, 0x01,
  0x14, 0x00, 0x00, 0x00, 0xe8, 0x00, 0x00, 0x00, 0x07, 0x00, 0x00, 0x00,
  0x00, 0x00, 0x00, 0x02, 0x10, 0x01, 0x00, 0x00, 0xf4, 0xfa, 0xff, 0xff,
  0x08, 0x00, 0x00, 0x00, 0x8c, 0x00, 0x00, 0x00, 0x10, 0x00, 0x00, 0x00,
  0x00, 0x00, 0x00, 0x00, 0x00, 0x00, 0x00, 0x00, 0x00, 0x00, 0x00, 0x00,
  0x00, 0x00, 0x00, 0x00, 0x00, 0x00, 0x00, 0x00, 0x00, 0x00, 0x00, 0x00,
  0x00, 0x00, 0x00, 0x00, 0x00, 0x00, 0x00, 0x00, 0x00, 0x00, 0x00, 0x00,
  0x00, 0x00, 0x00, 0x00, 0x00, 0x00, 0x00, 0x00, 0x00, 0x00, 0x00, 0x00,
  0x00, 0x00, 0x00, 0x00, 0x00, 0x00, 0x00, 0x00, 0x00, 0x00, 0x00, 0x00,
  0x00, 0x00, 0x00, 0x00, 0x00, 0x00, 0x00, 0x00, 0x00, 0x00, 0x00, 0x00,
  0x00, 0x00, 0x00, 0x00, 0x00, 0x00, 0x00, 0x00, 0x00, 0x00, 0x00, 0x00,
  0x00, 0x00, 0x00, 0x00, 0x00, 0x00, 0x00, 0x00, 0x00, 0x00, 0x00, 0x00,
  0x00, 0x00, 0x00, 0x00, 0x00, 0x00, 0x00, 0x00, 0x00, 0x00, 0x00, 0x00,
  0x00, 0x00, 0x00, 0x00, 0x00, 0x00, 0x00, 0x00, 0x00, 0x00, 0x00, 0x00,
  0x00, 0x00, 0x00, 0x00, 0x00, 0x00, 0x00, 0x00, 0x00, 0x00, 0x00, 0x00,
  0x10, 0x00, 0x00, 0x00, 0x13, 0x52, 0xc5, 0x3a, 0xfc, 0x77, 0xc6, 0x3a,
  0x8b, 0x31, 0xb3, 0x3a, 0xc1, 0x17, 0x84, 0x3a, 0x3a, 0xcd, 0xa7, 0x3a,
  0x72, 0xcc, 0x39, 0x3b, 0x9c, 0xff, 0xe0, 0x3a, 0x20, 0xde, 0x9f, 0x3a,
  0x54, 0xd7, 0x8e, 0x3a, 0x6f, 0xae, 0xa0, 0x3a, 0x33, 0xa4, 0xb2, 0x3a,
  0xe0, 0xd4, 0xce, 0x3a, 0x95, 0x5f, 0x89, 0x3a, 0x95, 0x75, 0xe4, 0x3a,
  0xd7, 0x7e, 0xa5, 0x3a, 0x7e, 0x68, 0x99, 0x3a, 0x2e, 0x00, 0x00, 0x00,
  0x73, 0x65, 0x71, 0x75, 0x65, 0x6e, 0x74, 0x69, 0x61, 0x6c, 0x5f, 0x31,
  0x30, 0x2f, 0x63, 0x6f, 0x6e, 0x76, 0x32, 0x64, 0x5f, 0x32, 0x38, 0x2f,
  0x42, 0x69, 0x61, 0x73, 0x41, 0x64, 0x64, 0x2f, 0x52, 0x65, 0x61, 0x64,
  0x56, 0x61, 0x72, 0x69, 0x61, 0x62, 0x6c, 0x65, 0x4f, 0x70, 0x00, 0x00,
  0x01, 0x00, 0x00, 0x00, 0x10, 0x00, 0x00, 0x00, 0xba, 0xfc, 0xff, 0xff,
  0x00, 0x00, 0x00, 0x01, 0x14, 0x00, 0x00, 0x00, 0xe4, 0x00, 0x00, 0x00,
  0x06, 0x00, 0x00, 0x00, 0x00, 0x00, 0x00, 0x09, 0xfc, 0x00, 0x00, 0x00,
  0x24, 0xfc, 0xff, 0xff, 0x08, 0x00, 0x00, 0x00, 0x88, 0x00, 0x00, 0x00,
  0x10, 0x00, 0x00, 0x00, 0x00, 0x00, 0x00, 0x00, 0x00, 0x00, 0x00, 0x00,
  0x00, 0x00, 0x00, 0x00, 0x00, 0x00, 0x00, 0x00, 0x00, 0x00, 0x00, 0x00,
  0x00, 0x00, 0x00, 0x00, 0x00, 0x00, 0x00, 0x00, 0x00, 0x00, 0x00, 0x00,
  0x00, 0x00, 0x00, 0x00, 0x00, 0x00, 0x00, 0x00, 0x00, 0x00, 0x00, 0x00,
  0x00, 0x00, 0x00, 0x00, 0x00, 0x00, 0x00, 0x00, 0x00, 0x00, 0x00, 0x00,
  0x00, 0x00, 0x00, 0x00, 0x00, 0x00, 0x00, 0x00, 0x00, 0x00, 0x00, 0x00,
  0x00, 0x00, 0x00, 0x00, 0x00, 0x00, 0x00, 0x00, 0x00, 0x00, 0x00, 0x00,
  0x00, 0x00, 0x00, 0x00, 0x00, 0x00, 0x00, 0x00, 0x00, 0x00, 0x00, 0x00,
  0x00, 0x00, 0x00, 0x00, 0x00, 0x00, 0x00, 0x00, 0x00, 0x00, 0x00, 0x00,
  0x00, 0x00, 0x00, 0x00, 0x00, 0x00, 0x00, 0x00, 0x00, 0x00, 0x00, 0x00,
  0x00, 0x00, 0x00, 0x00, 0x00, 0x00, 0x00, 0x00, 0x00, 0x00, 0x00, 0x00,
  0x10, 0x00, 0x00, 0x00, 0x33, 0x5f, 0xb8, 0x3a, 0x3a, 0x7b, 0xee, 0x3a,
  0xa5, 0xe4, 0x80, 0x3b, 0x5d, 0xe4, 0xf3, 0x3a, 0xd5, 0x6e, 0x41, 0x3b,
  0x94, 0x71, 0x64, 0x3b, 0xb8, 0xac, 0x7e, 0x3b, 0xec, 0xc0, 0xbc, 0x3a,
  0x69, 0xe5, 0xfc, 0x3a, 0xee, 0xdd, 0xba, 0x3a, 0x87, 0x47, 0x1d, 0x3b,
  0x15, 0xc9, 0xad, 0x3a, 0xc5, 0x17, 0xfb, 0x3a, 0x58, 0x0b, 0x11, 0x3b,
  0x50, 0x25, 0x24, 0x3b, 0x6b, 0xae, 0xc9, 0x3a, 0x1e, 0x00, 0x00, 0x00,
  0x73, 0x65, 0x71, 0x75, 0x65, 0x6e, 0x74, 0x69, 0x61, 0x6c, 0x5f, 0x31,
  0x30, 0x2f, 0x63, 0x6f, 0x6e, 0x76, 0x32, 0x64, 0x5f, 0x32, 0x39, 0x2f,
  0x43, 0x6f, 0x6e, 0x76, 0x32, 0x44, 0x00, 0x00, 0x04, 0x00, 0x00, 0x00,
  0x10, 0x00, 0x00, 0x00, 0x05, 0x00, 0x00, 0x00, 0x03, 0x00, 0x00, 0x00,
  0x10, 0x00, 0x00, 0x00, 0xe2, 0xfd, 0xff, 0xff, 0x00, 0x00, 0x00, 0x01,
  0x14, 0x00, 0x00, 0x00, 0xe8, 0x00, 0x00, 0x00, 0x05, 0x00, 0x00, 0x00,
  0x00, 0x00, 0x00, 0x02, 0x10, 0x01, 0x00, 0x00, 0x4c, 0xfd, 0xff, 0xff,
  0x08, 0x00, 0x00, 0x00, 0x8c, 0x00, 0x00, 0x00, 0x10, 0x00, 0x00, 0x00,
  0x00, 0x00, 0x00, 0x00, 0x00, 0x00, 0x00, 0x00, 0x00, 0x00, 0x00, 0x00,
  0x00, 0x00, 0x00, 0x00, 0x00, 0x00, 0x00, 0x00, 0x00, 0x00, 0x00, 0x00,
  0x00, 0x00, 0x00, 0x00, 0x00, 0x00, 0x00, 0x00, 0x00, 0x00, 0x00, 0x00,
  0x00, 0x00, 0x00, 0x00, 0x00, 0x00, 0x00, 0x00, 0x00, 0x00, 0x00, 0x00,
  0x00, 0x00, 0x00, 0x00, 0x00, 0x00, 0x00, 0x00, 0x00, 0x00, 0x00, 0x00,
  0x00, 0x00, 0x00, 0x00, 0x00, 0x00, 0x00, 0x00, 0x00, 0x00, 0x00, 0x00,
  0x00, 0x00, 0x00, 0x00, 0x00, 0x00, 0x00, 0x00, 0x00, 0x00, 0x00, 0x00,
  0x00, 0x00, 0x00, 0x00, 0x00, 0x00, 0x00, 0x00, 0x00, 0x00, 0x00, 0x00,
  0x00, 0x00, 0x00, 0x00, 0x00, 0x00, 0x00, 0x00, 0x00, 0x00, 0x00, 0x00,
  0x00, 0x00, 0x00, 0x00, 0x00, 0x00, 0x00, 0x00, 0x00, 0x00, 0x00, 0x00,
  0x00, 0x00, 0x00, 0x00, 0x00, 0x00, 0x00, 0x00, 0x00, 0x00, 0x00, 0x00,
  0x10, 0x00, 0x00, 0x00, 0xf5, 0x88, 0x35, 0x3a, 0xd9, 0xcf, 0x6a, 0x3a,
  0xde, 0xd1, 0xfd, 0x3a, 0xac, 0x23, 0x70, 0x3a, 0xe6, 0x74, 0xbe, 0x3a,
  0xbc, 0xed, 0xe0, 0x3a, 0x8d, 0xc1, 0xfa, 0x3a, 0x6b, 0xd9, 0x39, 0x3a,
  0x40, 0x01, 0x79, 0x3a, 0xdc, 0xfd, 0x37, 0x3a, 0x01, 0xdc, 0x9a, 0x3a,
  0x8a, 0x1c, 0x2b, 0x3a, 0xb6, 0x3a, 0x77, 0x3a, 0x03, 0xd0, 0x8e, 0x3a,
  0xbe, 0x9e, 0xa1, 0x3a, 0xfe, 0x93, 0x46, 0x3a, 0x2e, 0x00, 0x00, 0x00,
  0x73, 0x65, 0x71, 0x75, 0x65, 0x6e, 0x74, 0x69, 0x61, 0x6c, 0x5f, 0x31,
  0x30, 0x2f, 0x63, 0x6f, 0x6e, 0x76, 0x32, 0x64, 0x5f, 0x32, 0x39, 0x2f,
  0x42, 0x69, 0x61, 0x73, 0x41, 0x64, 0x64, 0x2f, 0x52, 0x65, 0x61, 0x64,
  0x56, 0x61, 0x72, 0x69, 0x61, 0x62, 0x6c, 0x65, 0x4f, 0x70, 0x00, 0x00,
  0x01, 0x00, 0x00, 0x00, 0x10, 0x00, 0x00, 0x00, 0x12, 0xff, 0xff, 0xff,
  0x00, 0x00, 0x00, 0x01, 0x14, 0x00, 0x00, 0x00, 0x34, 0x00, 0x00, 0x00,
  0x04, 0x00, 0x00, 0x00, 0x00, 0x00, 0x00, 0x09, 0x4c, 0x00, 0x00, 0x00,
  0x7c, 0xfe, 0xff, 0xff, 0x08, 0x00, 0x00, 0x00, 0x14, 0x00, 0x00, 0x00,
  0x01, 0x00, 0x00, 0x00, 0x00, 0x00, 0x00, 0x00, 0x00, 0x00, 0x00, 0x00,
  0x00, 0x00, 0x00, 0x00, 0x01, 0x00, 0x00, 0x00, 0xa9, 0xac, 0x9e, 0x3b,
  0x1d, 0x00, 0x00, 0x00, 0x73, 0x65, 0x71, 0x75, 0x65, 0x6e, 0x74, 0x69,
  0x61, 0x6c, 0x5f, 0x31, 0x30, 0x2f, 0x64, 0x65, 0x6e, 0x73, 0x65, 0x5f,
  0x31, 0x33, 0x2f, 0x4d, 0x61, 0x74, 0x4d, 0x75, 0x6c, 0x00, 0x00, 0x00,
  0x02, 0x00, 0x00, 0x00, 0x02, 0x00, 0x00, 0x00, 0x10, 0x00, 0x00, 0x00,
  0x82, 0xff, 0xff, 0xff, 0x00, 0x00, 0x00, 0x01, 0x14, 0x00, 0x00, 0x00,
  0x34, 0x00, 0x00, 0x00, 0x03, 0x00, 0x00, 0x00, 0x00, 0x00, 0x00, 0x02,
  0x5c, 0x00, 0x00, 0x00, 0xec, 0xfe, 0xff, 0xff, 0x08, 0x00, 0x00, 0x00,
  0x14, 0x00, 0x00, 0x00, 0x01, 0x00, 0x00, 0x00, 0x00, 0x00, 0x00, 0x00,
  0x00, 0x00, 0x00, 0x00, 0x00, 0x00, 0x00, 0x00, 0x01, 0x00, 0x00, 0x00,
  0xaf, 0x85, 0x03, 0x3b, 0x2d, 0x00, 0x00, 0x00, 0x73, 0x65, 0x71, 0x75,
  0x65, 0x6e, 0x74, 0x69, 0x61, 0x6c, 0x5f, 0x31, 0x30, 0x2f, 0x64, 0x65,
  0x6e, 0x73, 0x65, 0x5f, 0x31, 0x33, 0x2f, 0x42, 0x69, 0x61, 0x73, 0x41,
  0x64, 0x64, 0x2f, 0x52, 0x65, 0x61, 0x64, 0x56, 0x61, 0x72, 0x69, 0x61,
  0x62, 0x6c, 0x65, 0x4f, 0x70, 0x00, 0x00, 0x00, 0x01, 0x00, 0x00, 0x00,
  0x02, 0x00, 0x00, 0x00, 0x00, 0x00, 0x16, 0x00, 0x1c, 0x00, 0x18, 0x00,
  0x17, 0x00, 0x10, 0x00, 0x0c, 0x00, 0x08, 0x00, 0x00, 0x00, 0x00, 0x00,
  0x00, 0x00, 0x07, 0x00, 0x16, 0x00, 0x00, 0x00, 0x00, 0x00, 0x00, 0x01,
  0x18, 0x00, 0x00, 0x00, 0x18, 0x00, 0x00, 0x00, 0x02, 0x00, 0x00, 0x00,
  0x00, 0x00, 0x00, 0x02, 0x30, 0x00, 0x00, 0x00, 0x04, 0x00, 0x04, 0x00,
  0x04, 0x00, 0x00, 0x00, 0x1e, 0x00, 0x00, 0x00, 0x73, 0x65, 0x71, 0x75,
  0x65, 0x6e, 0x74, 0x69, 0x61, 0x6c, 0x5f, 0x31, 0x30, 0x2f, 0x66, 0x6c,
  0x61, 0x74, 0x74, 0x65, 0x6e, 0x5f, 0x31, 0x30, 0x2f, 0x43, 0x6f, 0x6e,
  0x73, 0x74, 0x00, 0x00, 0x01, 0x00, 0x00, 0x00, 0x02, 0x00, 0x00, 0x00,
  0x00, 0x00, 0x16, 0x00, 0x20, 0x00, 0x1c, 0x00, 0x1b, 0x00, 0x14, 0x00,
  0x10, 0x00, 0x0c, 0x00, 0x00, 0x00, 0x00, 0x00, 0x08, 0x00, 0x07, 0x00,
  0x16, 0x00, 0x00, 0x00, 0x00, 0x00, 0x00, 0x01, 0x18, 0x00, 0x00, 0x00,
  0x34, 0x00, 0x00, 0x00, 0x54, 0x00, 0x00, 0x00, 0x01, 0x00, 0x00, 0x00,
  0x00, 0x00, 0x00, 0x09, 0x70, 0x00, 0x00, 0x00, 0x04, 0x00, 0x00, 0x00,
  0xff, 0xff, 0xff, 0xff, 0x5d, 0x01, 0x00, 0x00, 0x0c, 0x00, 0x00, 0x00,
  0x01, 0x00, 0x00, 0x00, 0x0c, 0x00, 0x0c, 0x00, 0x00, 0x00, 0x00, 0x00,
  0x08, 0x00, 0x04, 0x00, 0x0c, 0x00, 0x00, 0x00, 0x08, 0x00, 0x00, 0x00,
  0x14, 0x00, 0x00, 0x00, 0x01, 0x00, 0x00, 0x00, 0x00, 0x00, 0x00, 0x00,
  0x00, 0x00, 0x00, 0x00, 0x00, 0x00, 0x00, 0x00, 0x01, 0x00, 0x00, 0x00,
  0x00, 0x00, 0x80, 0x3f, 0x21, 0x00, 0x00, 0x00, 0x73, 0x65, 0x72, 0x76,
  0x69, 0x6e, 0x67, 0x5f, 0x64, 0x65, 0x66, 0x61, 0x75, 0x6c, 0x74, 0x5f,
  0x63, 0x6f, 0x6e, 0x76, 0x32, 0x64, 0x5f, 0x32, 0x37, 0x5f, 0x69, 0x6e,
  0x70, 0x75, 0x74, 0x3a, 0x30, 0x00, 0x00, 0x00, 0x04, 0x00, 0x00, 0x00,
  0x01, 0x00, 0x00, 0x00, 0x5d, 0x01, 0x00, 0x00, 0x0c, 0x00, 0x00, 0x00,
  0x01, 0x00, 0x00, 0x00, 0x06, 0x00, 0x00, 0x00, 0x7c, 0x00, 0x00, 0x00,
  0x5c, 0x00, 0x00, 0x00, 0x48, 0x00, 0x00, 0x00, 0x38, 0x00, 0x00, 0x00,
  0x18, 0x00, 0x00, 0x00, 0x04, 0x00, 0x00, 0x00, 0xa8, 0xff, 0xff, 0xff,
  0x19, 0x00, 0x00, 0x00, 0x02, 0x00, 0x00, 0x00, 0x00, 0x00, 0x00, 0x19,
  0xb8, 0xff, 0xff, 0xff, 0x09, 0x00, 0x00, 0x00, 0x04, 0x00, 0x00, 0x00,
  0x00, 0x00, 0x00, 0x09, 0x0c, 0x00, 0x0c, 0x00, 0x0b, 0x00, 0x00, 0x00,
  0x00, 0x00, 0x04, 0x00, 0x0c, 0x00, 0x00, 0x00, 0x16, 0x00, 0x00, 0x00,
  0x00, 0x00, 0x00, 0x16, 0xe0, 0xff, 0xff, 0xff, 0x01, 0x00, 0x00, 0x00,
  0x02, 0x00, 0x00, 0x00, 0x00, 0x00, 0x00, 0x01, 0xf0, 0xff, 0xff, 0xff,
  0x11, 0x00, 0x00, 0x00, 0x02, 0x00, 0x00, 0x00, 0x00, 0x00, 0x00, 0x11,
  0x0c, 0x00, 0x10, 0x00, 0x0f, 0x00, 0x00, 0x00, 0x08, 0x00, 0x04, 0x00,
  0x0c, 0x00, 0x00, 0x00, 0x03, 0x00, 0x00, 0x00, 0x03, 0x00, 0x00, 0x00,
  0x00, 0x00, 0x00, 0x03
};
unsigned int _____model_lite_CNN_model_tflite_len = 11272;
